node {
  name: "global_step/Initializer/Const"
  op: "Const"
  attr {
    key: "_class"
    value {
      list {
        s: "loc:@global_step"
      }
    }
  }
  attr {
    key: "_output_shapes"
    value {
      list {
        shape {
        }
      }
    }
  }
  attr {
    key: "dtype"
    value {
      type: DT_INT64
    }
  }
  attr {
    key: "value"
    value {
      tensor {
        dtype: DT_INT64
        tensor_shape {
        }
        int64_val: 0
      }
    }
  }
}
node {
  name: "global_step"
  op: "VariableV2"
  attr {
    key: "_class"
    value {
      list {
        s: "loc:@global_step"
      }
    }
  }
  attr {
    key: "_output_shapes"
    value {
      list {
        shape {
        }
      }
    }
  }
  attr {
    key: "container"
    value {
      s: ""
    }
  }
  attr {
    key: "dtype"
    value {
      type: DT_INT64
    }
  }
  attr {
    key: "shape"
    value {
      shape {
      }
    }
  }
  attr {
    key: "shared_name"
    value {
      s: ""
    }
  }
}
node {
  name: "global_step/Assign"
  op: "Assign"
  input: "global_step"
  input: "global_step/Initializer/Const"
  attr {
    key: "T"
    value {
      type: DT_INT64
    }
  }
  attr {
    key: "_class"
    value {
      list {
        s: "loc:@global_step"
      }
    }
  }
  attr {
    key: "_output_shapes"
    value {
      list {
        shape {
        }
      }
    }
  }
  attr {
    key: "use_locking"
    value {
      b: true
    }
  }
  attr {
    key: "validate_shape"
    value {
      b: true
    }
  }
}
node {
  name: "global_step/read"
  op: "Identity"
  input: "global_step"
  attr {
    key: "T"
    value {
      type: DT_INT64
    }
  }
  attr {
    key: "_class"
    value {
      list {
        s: "loc:@global_step"
      }
    }
  }
  attr {
    key: "_output_shapes"
    value {
      list {
        shape {
        }
      }
    }
  }
}
node {
  name: "Const"
  op: "Const"
  attr {
    key: "_output_shapes"
    value {
      list {
        shape {
          dim {
            size: 17504
          }
        }
      }
    }
  }
  attr {
    key: "dtype"
    value {
      type: DT_DOUBLE
    }
  }
  attr {
    key: "value"
    value {
      tensor {
        dtype: DT_DOUBLE
        tensor_shape {
          dim {
            size: 17504
          }
        }
        tensor_content: "\234\"\260\2150\265\354\277\266/\217\275\203\204\355\277oW\323?\255\314\355\277z\253\375h\365a\356\277\304\232`oR\352\355\2772\'\230\341\344\323\354\277F\010\221k\330N\353\277\336\tW\231.\256\352\277\245\314~\t\024 \350\277\000\013!#\232\326\346\277K\352\345\302\200B\345\277v\\\355dvQ\344\277\226\370\333\234\247\211\345\277\340m\242\312\251\274\345\277\204\263\027\215ne\345\277*\036\250\364pg\343\277\342lI\200\002\'\341\277h\311\t\302v\253\341\277V\217(5j\336\341\277\252>zo\275\333\343\277C\257\210\355\031-\346\277\036$+G\'6\345\277a\024\360|\001\'\351\277\366nn\032+-\354\277\310G\226\203[\223\355\277\272y\364\351R\371\355\277%=\267\036!\026\356\277.\246\2067\273\024\356\277\225[\311a,Z\354\277\254M\376\336\354=\351\277\007\227n\264)\334\347\277\006\353=+_.\347\277\2030\324\204\261X\345\277\226gx\236\017\361\342\2772\277V\272\177\231\343\277\004\277\036\220e\010\344\277\360p\222\376\037\353\344\277h\275\022Yc\030\345\2774\302^B~Y\344\277\214\31207\204s\342\277\033\337dg\323\212\340\277\274\200\253\354\374\321\340\277\230x\224\223\265\335\340\277\024QG:<g\342\277 \026\3351\363\333\344\277w\201\323\275\223,\344\277\2768\276\222\342\203\350\277\357\257\310\026;\377\353\277\226\367Kz\3474\355\277\364XM*\243\247\355\277H\356\343\2704\252\355\277W\336\r\352\003\217\355\277,\250\267K\320\333\353\277\320@\300\377ay\350\277\336\246\374g\363\214\346\277\3407\343^\263L\345\277\300\343PoF\265\344\277F\211kS\364?\343\277n\206\274_\306\266\345\277Z\027\316\033\247W\345\277\344,\303g\210?\343\277\336\335\313\271\353\032\336\277\224\306\263\243\372\262\326\277\266\347j\213Pw\321\277\030#\217>\305^\313\277\304\316\223c\210N\320\277x\257\326\201\224\361\324\2776\"\034\322{#\331\277\312Rv>\030H\340\277\nf`\0172\343\340\277x$s \354L\346\277~\312\032\3553p\352\277\371.GgB\033\354\277\360\177\347\247\t\325\354\277\246PR\267\022.\355\2773\373O\344n\230\355\277Q}/\311\201\237\354\277k\020\'\277c\277\352\2770 \265I\331\372\350\277\320\326-\300\275\242\347\277$\376\240&>!\347\277h\266\314\306V\224\345\277x\204\350\213\275\346\346\277\246\370\022%\230P\347\277w\251f\270\202\326\347\277\304\252>\362&/\347\277\217\301\035\267\322\234\345\277\002\031\350\2401\365\342\277m\230G1\210h\340\2772\301\375\005\024\255\340\277\365e\251Z\213}\341\277@a\357\301~7\342\277`\245\240h\250Z\344\277\342\2277\367Yk\343\277r\237\363[\360\312\347\277\"N\375\277\301\236\353\2774PU\303\246\027\355\277\243\321\005X2\251\355\277%\204\022O\005\356\355\277\263\213^\014\374E\356\277p\027\343v\346\204\355\277df\245\036\206\344\353\277u\303\340\017q-\352\277d\253W\006e\306\350\277\234\022e\023 \247\347\277dLl1v\"\346\277\320IM\253q\010\347\277B\250\027\010&c\347\277|\221\rU\005\237\347\277\230&3\010\005\205\346\277\022r\320\314\236\274\344\277U>\212\260\263-\341\277V\237\322\022\013O\334\2772Pp\233|\005\335\277@\3028\365\327q\336\277\230{\320\300\347q\340\277\n\271\342=pl\343\277\317\1776\263Z|\343\277\340\177\235S\023\016\350\277I\353l\255\001\340\353\277\344\206\271\276\247\025\355\277AM\373\307\027\236\355\277\366\320-\350\357\255\355\277\005\023\254\\C~\355\277\205\2047\263\233W\352\277\200\363}$@$\346\277\322R\002\336\366T\346\277\256\001\221\336st\347\277\252@\271\204\364\304\347\277\r}\273o\245\177\346\277L\362\332E\003\350\347\277z\323xU\1773\350\277\211\013F8H\301\350\277\210\237\206y\376\370\347\277\367\200\306\013\265q\346\277\366\311M\004J\371\342\277\326\007\014\250Z\201\337\277 \311\0216\374u\337\277\3643\354Y\250\032\340\277a\034\207Q\3478\341\277l\345\335\324X\236\344\277@\255\332\363=0\344\277:\275\212\177\315\242\350\277\234\201\027\243\372W\354\277\333\301\255ud}\355\277Jkl\007B\343\355\277A\021\304\001\275\005\356\277\377\31571\340e\355\277~\236z\311\374\031\352\277&\025\302\360-\233\345\277Q\236Z\"\302\350\345\277\3202M\244\244q\347\277\271\332k<\005\002\350\277\360\320\177\260\352\276\346\277\210\342xD\351\372\347\277r\351R\231pd\350\277\262\327\271\371d\304\350\277\2271t\302Ru\347\277\234\217\014<\351^\345\277\002\004\033&h\350\341\277\350\253\\\242nT\337\277\3104\231-\036\252\337\277\360^ud\023J\337\277\336\264\255\340\234g\341\277\252>\345\344\005\243\344\277l\374\230yfN\344\277\314\224\247\021\203\217\350\277\302\345c\341\024y\354\277\264\0326\016Q\263\355\277\034\240\035\210\'%\356\277\316HS\340h\037\356\277\236\332(c\375o\355\277]\332\\\321V*\352\277\212\200\26616\204\345\277:\250?\313\271\232\345\277\274\312\332\017\264-\346\277(\316\301#\365\007\346\277@X\020\353\002\033\345\277\351i\265\004\373{\347\277B\257\313Ti\244\350\277\030\3301&O&\351\277\206$\214\"\244Z\350\277\337c\250W\373\256\345\277 j\021\224\224\t\343\277\037\\M]\354S\340\277\\\"\013?\204\377\337\277\204M\003\365\266\264\337\277\034\245\036\201#-\341\277k\227b\260v\233\344\277\326\253E4\263S\344\277Q\224\337&\326\252\350\277J\366\313\355\207\211\354\277\226\301H\352\251\262\355\2779\215o\371\227\034\356\277\220x\010qU$\356\277S\007\034TG\234\355\277x;;\204\241d\352\277\212\344[\240\360f\345\277\"4\356\347 N\344\277\264F \326\246\310\344\277<Ss\263\004\230\344\277\301\345\241\205\204\336\343\277\363\202\005/\363\177\345\277\234?\261e`\325\346\277\324R\306\263v%\350\277\346\033\214\017\207\354\346\277\306%B\010D\027\346\277\210J\204R.\204\342\277F\016\212\275\361\325\337\277\366\373\217\223R\003\340\277\262\217<\344x\001\337\277\002\274\203\007\247\335\340\277\304\371\017\"\305*\344\277\332\242\351\306\327\377\343\277\245\305}\331\306\202\350\277w{\333(r@\354\277F\275<\227\247\177\355\277\364\3553\221\006\005\356\277\335\274\232\344\325\n\356\277\277\373H\315/X\355\277B\365\275\265\217O\352\277A\264\343!T\226\345\277.\357\004\350\010M\345\277\342\337\322\230\201@\346\277\022q#\325\227\227\346\277j0\001\334\315\323\344\277\\\232!\243w\242\345\277V\'n\020\027(\344\277\030\307\337\025\210\025\344\277z&]8B\307\343\277\314\224\032\016\031%\341\277\2026\226\2138\014\335\277\246\343;&\020\223\330\277*\356g\231*\325\330\277\360v\205\326d\036\333\277\302\207*B\212\354\335\277\330\227\226\025\210\016\342\277\2431\017\225\305\306\341\277\230\024U\327c\260\346\277\225\377\025\264\207\323\352\277\230\2625\\\220F\354\277\374\343\231\237P\376\354\277p\262\304\261Vk\355\277\335\006\313K\010\224\355\277Y\315\351_\t\257\354\277\302\373\233*\016\010\352\277~\035\364\r\300~\347\277/\256q\257\373v\345\277\342\232*\270\342\273\343\277\356\343\304\273\334\251\340\277\272\327\265N\352\375\335\277\304\214D\177_\325\331\277\310\205\264:-m\330\277*=\210(\303\325\325\277p,\362\020\202\365\325\277Pzj\236\315\027\324\277r\206\212<\206\344\321\277(\372<\365\234\376\322\277@@\262\332\260\302\326\277$\277\030\351\271\330\332\277*\344d\322.\306\340\277\242#7J\232\375\340\277\361\351\350\325W\376\345\277\020$\220\003<C\352\277\250\337\302\276\201\322\353\277\371=8]5\245\354\277\241\205\006\241w\373\354\277h\010S\033\022G\355\277$\264\014\217\226\344\354\277r{\210\331\232\265\352\277\313\256\330\177IO\350\2774)\021\205\233\023\346\277\021\337\217\360\325\361\343\277Y\331\310\276\271O\340\277\372\266\t\260LP\334\277>\334\237~\277U\325\277\300U\240\216U\262\314\277\360Y]\2511c\276\277\200\345@\035\000N\240\277\240\001\367\177\224\030\262?\200\206\371O\202\306\271?@3\310\222\373\034\254\277\250\276m^\331<\317\277T\221\317\202\377d\327\277\346\257v\035\350\254\340\277\344\005\010\252\200\333\341\277\336g\341%\255\363\346\277%\237\212\364b\370\352\277\206\214\245\256\211Y\354\277d\000#\316\230\351\354\277\261\204\203v\273\033\355\2778y\367\310\220\207\354\277\312\010 \312_7\351\277A\275y\220(U\344\277\373\214\341\361Se\344\277^L}\233\230P\345\277\240\275-\202 \367\344\277(\021\334\207^\322\342\277\256\341\265\014\026\221\342\277\204\226\n\247\210\306\340\277\002\241,3s\333\335\277\232\330\262\0149\362\326\277HoC\252\363\"\314\2770\316\266\t\222\276\243\2770?\257\204\377=\272?\3002`\225}\201\223?\220\224\3423\'\214\303\277p\252\370\013\316\273\321\277\232\324\363\205\363\257\335\27712\177\357{\301\340\277\320/\177\264*G\346\277)\275zP\342\\\352\277\225\334Y\235%\300\353\277\3502\276\037\207~\354\277\212~V\320W\262\354\277\303\214\021\253-\032\354\277a\000\271\250\321\001\351\2776\2621\323($\344\2772\256\311\311\266\337\343\277\260\036\nr\027V\344\277\266\206\310\363\275M\343\277R=\321\312\006\272\337\277L\005\337\344\025\313\334\277\342Z\031\245u\376\326\277\2242\"\006\331\223\321\277,\335\263\332\341\022\304\277\200\025\231O\317\235\177\277\310\36614\270\373\306?PIz\243 \356\324?\260N2\263\362]\322?P\221\263\021D\362\302?\000jSTvV\214?Xc\371\374M\275\317\277p\2279\277r\'\331\277\260\347\036\010\320\222\343\277\352\333}\242x.\350\277\252\371\000ck\364\351\277\363b\347x\307\321\352\277\006]\342=J[\353\277\222\314xn\357\"\353\277\236J\235\257SB\350\277\251\001x\256\244\021\343\277\'n\227\037=!\342\277F\337[A\034^\341\277\360\002\263u\323Y\336\277\000\320\256X\246\374\324\277\024 C\242\207$\317\277\234\214W\r\307h\300\277\2401\334%\006\373\241\277\240I\035\205#\231\262?\230j7%\332\265\313?\024z\272\211\350\366\327?h5i\\6\220\337?\244Ik\250\246<\332?|\211k/a\251\321?\3006\322\360\224;\276?\224\024\333\237\377E\302\277\270Y\276+\305\313\322\277\254\205\205g\241\311\340\277\207\003^\202t\250\345\277\024\202\243\374\263\252\347\277h\013\014\277\223\342\350\277\300PT\261\301\243\351\277*q\364\202\013\255\351\277\331{\tH\311\r\347\277~\2744\231\342\270\341\277\220l\315j~\021\340\2770\230Ij\230E\335\277N\221\032\211\250\016\327\277\314>(\033|X\313\277\370\002\204\372\362\371\300\277\220\210\232\363*1\246\277\200\263\336\376G\366\232?\240t\344C\006\306\274?\360\255\357\257j\345\314?\260\215;\3703\235\327?8&\364\250\240\370\335?\320\353\005\001\300\032\330?p\335\256\225?M\312?\300\233z\301\006U\235?\034\243b\007\246G\315\277>\353\332\223N\177\327\277\250\020-\001\233\376\342\277\206\267!k\305\302\347\277\244V\342\234Z\202\351\277\237\0226+\311\213\352\277\322\216@\345\"\033\353\277C\n\345U\214\314\352\277D\303\205\236?D\350\277\236s\244\266\264~\343\277\304\275\364e\262\242\342\277\326\210\324\204j\363\341\277`L\355\313\274]\337\277j\243\353\353\331\\\326\277\324i\004\330/\217\321\277\330\275\342\205\373\013\306\277\250Y\201\246~\004\266\277\200g1\006\203\032\231?x;\301\255\255\003\303?\304D/\023JQ\322?\364\367^\343y\267\327?0_\305@d\t\324?\360\014Vs\2625\307?\240WX9\307;\247?\214%\226b\273B\307\277\370l\0064\000\000\324\277R:\033\\k|\341\277y\'\316\021\317n\346\277\342+6\r8\215\350\277\343\r\335$\327\305\351\277.N\362<\352\177\352\277\201\272\343\361\033\276\352\277\352v\302\321\346f\352\277\232%\355\002\340\\\347\277$\030jX\244]\344\277\023\265\212\201\370*\340\277\350\232\334\361\315;\330\277(8\305f\300w\312\277\240\370\322\255\314w\273\277\2001b\2278\307\215?p=vt\241\240\271? ?j\200ot\307?HG\"\335\231h\310?\020Ekp\242\264\261?\2201\007\363*\250\244\277\200S\030\344\241\220\302\277\314\t,\244v\205\310\277Z}\031\234\177_\322\277jr\325\313\232G\332\277\"J\007\350\346/\334\277\277X\364Pp\261\343\277\\\371\034\206\001\343\347\277&T\346v\271\235\351\277|\307\022i7\226\352\277>\251d\335\243\027\353\277\245@\265\031\232^\353\277\352\265\033/\030`\353\277Os}|\0005\351\277\244@6\232\323\302\346\277@b\371\240%\026\344\277\340\220\021y\177T\341\277X\217.*\274\022\333\277\360\310z/\325\024\330\277\324\307\355V\306\225\322\277x\250\344\252\356!\312\277`\205\262\234-\"\272\277\200\364?\001\314u\243\277P\030-\024=\357\243\277\000E\261*\347F\300\277\226ZI=\377\t\320\277\204\272^]\363\275\325\277\350)ZKn\214\333\277\347\344\263sF\234\341\277\004\274\306\327j*\342\277\246\230\336\021\234@\347\277v\310R\203\017\311\352\277\001\0238\263\275\345\353\277Vs\323\201>W\354\277::\207\022\356\204\354\2772\274\371\303\'\311\353\277\363ZI\336\215r\350\277\030h\315l\026\020\343\277\356\371j8\211c\342\277~\232[\020&\317\342\277\304\321\235\372\000\374\342\277\3746`oT\355\341\277\375\357\314\036\332B\343\277\036#\337J\257f\344\277\330\325CH\262\025\345\277\364\223r\216\013y\344\277\034F\001\026{\242\341\277PC\r\t\362\327\333\277\212\2538\371\316\022\327\277v\207d\343T\310\331\277\004j\362a-G\333\2770in[\251\025\337\277\230+OPRu\343\277\226\202\264!\361\227\343\277\262\326\241\027\233P\350\277^\006\371\356\245\t\354\277\346\261tM\303 \355\277?)\303\250{\242\355\277g\"sA\307{\355\277\001\274\313)\322\232\354\277\346w\030\345\246+\351\277\017\221V\355\306\305\343\277a\266\n\207\324C\343\277\032G\3708$\031\344\277P\362\266\232`2\344\277\366\001\033/7\263\343\2779\220~\312k\326\345\277o\016h\332\344Z\345\277PAg|V\322\343\277\304[\"\334\357\271\341\277t\037y|\313\360\334\277&\266dc$\217\324\2770\245\323@]|\314\277@V#\r>q\322\277\022J\236@\270|\327\277\336pb\307\010\352\333\277HJ\320Af+\342\277\3623\305\211\'\237\342\277&C\2753\344\352\347\277\277\"\027\316\270\266\353\277{\n\307(?\320\354\277\023\333f\253<*\355\2772s\254\356\234O\355\277\tO\367\030\022m\354\277\030\034\32411)\351\277\266\373\370O\315\256\343\277\366\300\220Hvk\343\277\016\372\211\345m\006\345\277V\213\335e\261Y\345\277\274\311\376\304\340\244\343\277\302\277\206sUL\345\277r\322\371%f\022\345\277\276\354\222>\302\t\345\277Z\262\243Nd\030\344\277<\000\325rz2\342\277TC\376\255I\227\336\277\236\023l\265\334[\332\277\004\303g\327\'2\334\277Z\251C\377\262c\335\277n\343\254\306F0\340\277\302jD\257\246u\343\277\213\206\277\010f\242\343\277~\006{\216\207\213\350\277\353u\025\332\337A\354\277CF-\341vC\355\277\254p\351L\035\233\355\277{\022\223SJ\237\355\277N\260\357\002\310\303\354\277\363\024\246\350g~\351\277\363\214(}\232\020\344\277\316\274\251\366\031\246\343\277\341w[\341\200Z\344\277k\215\005\302F\251\344\277\231\243\322\247\177\373\343\277@\\4c\267\221\346\277i\366\242\365\277\302\346\277\214\367qD\014p\346\277,\375\305\363\317\343\344\277\337\207\033_\235\037\342\277,\203q\270\035,\334\277\320j\366\272z\240\325\277\016;=$\246$\327\2776\320\215\366r\242\331\277\322\344\3605l\327\334\277\364\272\231zQY\342\277\274\'X\365\033\362\342\277g1\323-h$\350\277\252\223\3124\216\324\353\277G\215\376\271R\t\355\277\313/\023\226\364b\355\277\352\2737\326Od\355\277\001]R\216~\230\354\277\340nH\374\\\224\351\277o\t0\377\312T\344\277P\343\344\367\245\224\343\277w\362\274\327U\022\344\277\262\262\201{\336\264\343\277\374_\374\211\361g\342\277\362B\337\317\2153\343\277\024EK\020J5\343\277\004\321I\254\024\005\344\277@\204;\230\264\245\343\277\340c\215\006\251S\343\277\335\244\010\302\331\"\341\277\374\352p\272.*\336\277n\356\223O[\376\336\277\344\372\022\235\310>\340\277\234\232P\266\242%\342\277\224\316m\317\377\264\344\277X\005\254MB\003\344\277\033J\010\307\357m\350\277\274\224\352\304\370\030\354\277u\316\354\356\026A\355\277\272H\231\346\323\303\355\277\254\356\335\263\330\334\355\277D\203:h\310x\355\277o\275\352\036T\346\354\277z|\226\224\024\234\351\277N\261\013j\371t\347\277nD7XxM\346\277\036I#*\320V\346\277\261L\217uJ\215\345\277\020s\324-oa\347\277\361\321\362\371a]\350\277\033\237;B\377\016\351\277\365\363\205\310\331\264\350\277\273^N\246\034Z\347\277\364/\337\245\332\365\344\277\356\220\376\345\325a\342\277\224f\230\340\3355\342\277^if\350\344D\342\277[\023e=1\024\343\277v\306\242r\265\022\345\277\245\266\224\353\241\000\344\277\204,\267I\314)\350\277\275\312lS|\375\353\277lw\"\343\244D\355\277<fz\024\204\304\355\277-\024\366\014b\354\355\277$\277\231g\362\311\355\277>\327\257LT\237\355\277\245vPy}\017\353\277\0146\372\216Ye\351\277(\322M\320\0056\350\277Uw\236\0249\245\347\277\n-\204\277<\214\346\277\346\261\016\237\\Q\350\277\376\007\3046GE\351\277q\351MY\022\377\351\277\226X\266\007\357|\351\277\016\276\250Fb3\350\277\312\377\022a\0218\345\277\235B$m\254\233\342\277\216te\203\337P\342\277a\251\254\314\364\237\342\277\330\345\377\273\344}\343\277|KTN\353\264\344\277s\276OS\237\344\343\277b\005g\267hn\350\277\202ds8\256\n\354\277Z\252f\247\265B\355\277\2407\214\272\r\315\355\277z\245Mu~\371\355\2774\263\325\206\352\337\355\277\261)\303\335\323\310\355\277\323\264Aa\366y\353\277\322\033RZ\264\223\351\277$\313R\261\030\027\350\277\264\377\002\305\2576\347\277\230L\334]\027\311\345\277\230\000\016\365\230\356\346\277\342!\301\022\2445\347\277\2003\213=\313\034\347\277\304\001\226\260\232$\345\277\366\235\003\213\343\024\342\277\326 x\034\273\365\331\277(k#\312p\356\321\277\340\000l\260\372,\322\277\310\365\312\314\340\371\325\277>\203\363\243%\300\331\277Nq\262\255\335g\341\277<\334\n\006\021(\342\277\002^\334\247\342:\347\277\277\033\242e^\"\353\277\255\361\322s\323\202\354\277\2127\333\022\305\377\354\277\221\\\347XX2\355\277\310\264\221F\215\177\354\277\3340\353\0013w\351\277it\313\371\252\014\344\277rB^\345\241\201\344\277y\020\242u\240\327\345\277[K\016\325\207|\345\277\\\276\356\327PO\343\2778\324]6B\021\343\277F\260yn\332S\341\277V<\014\277\227c\336\277\372\216\374\372w\217\327\277\264t\250\247L\373\314\277`\343\266\373\235\342\254\277\2202\007\315\222\234\264?\000\035r\253\277q\234?\270\274S\350\227>\267\277<\265aI\020\004\314\277J\356\372z\032\211\333\277\256\013\"\351R5\340\277\2137\327\n\334\025\346\2774\262\301\242\004\027\352\277\306\207\211\024\222}\353\277\'\216\346\252(5\354\277D\253\037\021\245\\\354\277\311wL\227\241\253\353\277Y\005qi>t\350\277v\315\204\332O<\343\277T\315\220\220Zw\343\277$\217\007\335=\304\343\277\377M\331c\007h\342\277\354H\300\304\332\343\334\277\336\232a\'\207\245\330\277\364\n+\343v\001\322\277\220\220\251\352\367f\307\277\010\217\274\232\367 \260\277P\216\300>\262\226\266?\310?CZ@&\322?\340w\266P2Q\327?x\277\347S\030\322\306?@\3620:\371\370\237\277`\245pV\343\350\312\277(\270j\223\311>\333\277,\363\225\336|\037\340\277\022~q\014b\027\346\277\204m\321~\350*\352\277\204\264\222\340\264~\353\277\246<\320\372H\034\354\277mvH\024\302d\354\277q\332\3767\004\216\353\277\n2\230\003\276Z\350\277\367\306\273(E\r\343\277\214\261\215\346\010Z\343\277\206UT\035_Y\344\277$\r\016Y\n\304\343\277\363\030<\0276\352\340\277|\371\350J\202]\337\277\342f\252\332\237\242\331\277\332\r\205..s\323\2770I\301\234\236N\305\277\000\306\246\330P\233\205?@\271L\3529f\313?\374L\344c\342\\\326?\320\206\363I\346\177\322? \317\376\014\351\302\311? \235\256\367;w\261?\364\000\350\214\243\265\310\277\250Qx\242\002\220\325\2779%?\241\307\377\341\277(\310a`z\275\346\277R\335\275\2042\314\350\277N\206W\020\251\345\351\277\232\232\373\326\320s\352\277\032\0360\207$+\352\277:\224\262\3013\213\347\277\276!&\302r\027\342\277\002!D\231\027D\341\277\206\206p\277v\216\340\277B\244\360\327\t\342\333\277\320\226z\336n%\322\277\\0\332\304\351%\310\277X\034\251\023#\212\263\277\200\004x\353\364\375\202?@,\377z@\206\211\277\340\277\205\016\t\365\302\277\340Kq\222\247\262\277\277\300\023\227\376=\342\225?\300\350\316\326\014x\230?\300\261yL\301\254\225\277\020p\255\343\300\206\276\277<-\201t\312\274\322\277P\253\276f~x\330\277\276\006y\300\354\366\342\277\236:\rT\004\207\347\277\254\006/z\375T\351\277_\337y\320\230\\\352\277HEbO-\347\352\277\224\224\206\337i\376\352\277\222`\260]Y\314\352\2776\014\354\220P\234\347\277/\267\366\325\276\252\344\277~\223\257L1\317\341\277\036\227y\n*\037\336\277\"w\234\035L\234\324\277Xbv\026\264#\317\277\020\353s\221\345j\276\277 5\332\351#\251\223\277`\364\314ji\311\271?8\"\313w\021\257\313?`\373\274\202\275\243\324?$\313?\355\026\343\326?\304\307\r\267\036\025\321?\220gqiDu\300?\200\320\030\223\265\332\221\277\370\002?\2366l\312\277\022\334\220+\234a\323\277\212$\3408x\277\340\277d\333\263\354s\242\345\277\342\024*\376\267\320\347\277\367\365\300R\246\007\351\277p3>\246\347\322\351\277I$A\365(/\352\277\223\354gD\310\201\352\277\274%I\2011\331\347\277\324\267)^G\322\344\277\304\331;\024\272!\341\277\344\333\322\255`\302\331\277L\273^o\370\306\313\277\330~\035M\365z\272\277\000%\013/n`\227?\020\342\335\370\373<\276?@\230e4\300\365\314?p\010\024\027\031j\325?\250$\324\t\361\026\336?<^\030\242\311!\341?\270\031Yg\366\230\333?\264\225\231T\3760\322?@\025\232\333p\370\274?|#!|\210\324\304\277\"\344C\256\233\331\324\277.\370\365@\014\343\341\277\220,\016uv\274\346\2776z\274O}\276\350\277\364\307\332\342k\331\351\277\367z\374\215\350\207\352\277B9\361A?.\352\277:`A/\221\032\347\277\376\2354:\220\361\340\277\264\251\3269\216\324\341\277\312V\026x(\367\342\277\346N\226\333\342\304\341\277\000+:\237jx\334\277\026O\212\333\262\352\330\277D\231\344k\335\342\321\277\354\360\235v\036\005\305\277@\023\322\332\300&\214\277@\301\267\256@\227\307? \212\361\255T\036\330?\202\245GJ\021\244\340?\360\251\307%\310E\332?|\350B\221]\243\321?p\377.\240\265p\271?|%\341%\003\240\310\277\324\244l\036e\270\325\277\277\246\251\230\\\302\341\277\206W\357V;\010\346\277\243\010\264[\202\333\347\277x\335XP\341\312\350\2779t\317\363\rR\351\277\224\352l\320V\376\350\277\013<\327[\255\373\344\277\202vP;\337\242\336\277\024\"B\225]\214\341\277=2T\\t\033\343\277=\352s\321\t\315\342\277\264\322\356\r\203\273\341\2774\362\276\257\365\345\343\277\266\265g\3400\032\345\277\010n{\255A5\346\277\307,\316:\210V\346\277\220\370\226X\367_\344\277\260\277\375\321\001\003\341\277\224D\273\336\277\300\333\277\014\300\377}\010s\332\277\230\\r\274\277\335\332\277\016\010q{9x\337\277\272\276r\275\206\330\343\277Q\355\177\375\276\000\344\277\321\303v\002\264\250\350\277\016\267\276a\177z\354\277K\006i\207\376r\355\277\316>\341*\303\275\355\277m\340\314LA\300\355\277j|U\001\342\221\354\277\354\226\264\340\247\t\350\277\316\263`\362\322\325\340\277\324\202\303\263s\362\342\2770\373\277.\240|\345\277\330\031cKdY\345\277\212\2713\221\024\215\343\277\274ryr\231Y\346\277\213\010D\237\230\334\347\277\217B\263\273\256m\351\2777\370I\300T\035\351\277,\\\263\3132\303\346\277\302\225\010\220\016\017\343\277Z\\O\255E\232\336\277l\017:\255\377\344\334\277\362\025\372u2[\334\277\210\336\0209vC\337\277D*\231\314\343\273\343\277\370., \365\376\343\277-\313_\315.\242\350\277\365%4\220%z\354\277%+\007\202S\227\355\277\321Oe\311?\351\355\277\257\177\"S2\327\355\277\333\201\242cO\246\354\277\002\244\202\346\370\n\350\277\2646ni\264\275\340\277\010\026\212LQ \343\277\\VE\003\023\360\346\277\3009\371>E\374\347\277c\t+x\t\275\346\277\363\246=Z\225-\350\277\325\t\213\\q?\350\277~\353\265\200\235\005\350\277\253\202?\302\2666\346\277S\027\351\t\2106\342\277\240\177\370\004gX\333\277\240\337\262c\200\252\323\277fY\253\220\031\016\325\277\260c\374\374\327\362\326\277\022\300\347\310\017\330\333\277\376\327I\300\372p\342\277\264\375\330\005v\033\343\277\2442\262\376\010\374\347\277F\207\260\003\345\260\353\277\312\023pB\307\344\354\277d\317q IB\355\277w\251S\356}I\355\277;+\200\214\207>\354\277\340\373C\341zP\350\277\250\203\375\210Ry\341\277\366~itG\265\343\277jE\340\334 @\346\277\326\200\360G\370e\346\277\"4\0278\224X\344\277\204f6\202\204|\344\277U(}\272\241\344\342\277\311$\336\363a0\341\277\230\356\035\277\356\363\332\2770w\360\367\001\207\317\277\260\t\304h\327\373\266\277\000\320p4\370\327S\277hk\201\335\376\360\260\277\020-\037\304\310\030\304\277\032\313\006\277 \004\322\277p\2477\325\370\237\333\277,.!\375Qr\336\277Q<\273\345\255(\345\277xOF\303o\211\351\277\344J\206\3722\016\353\277]`V\305-\310\353\277\365\356\240\333&0\354\277b}\270x\334\r\354\277T\031\366\001\202\246\353\277{2\025\277m \350\277\264,\215\271^W\345\277PA\377G\372\032\343\277@\325\367\270\256\000\341\277\262\350-\035\320\227\331\277 /\250\234m\367\324\277\014\204\263\326*\224\314\277\224G\213R.`\300\277 \252L\254h\240\232\277\000\374\227\235!~\264?\200\304D\336/[\307?(-\212\253\311\372\314?\260\362\022^\223\355\301?\200\215\302Fl3\204?0qS\342\231)\276\277\026\365em>\022\323\277,r\357\014\r\244\327\277\360\362-e?)\342\277\030\344\306\344\342\355\346\2772Z\227\353\t\'\351\277r\376\260\230\t3\352\2778\356\364\317\355\363\352\277\350T\261\263\031#\353\277\300\234\201\004Ts\353\277\230\216\"\002\375\276\350\277\332?\226\332o\362\345\277\034H\036\036\021\"\343\277<\262\023\242Z\302\336\277\010\235\331\304`$\324\277,?\302\375\233Y\313\277\3004\000\337\237\315\270\277\000\265\362\365vCr?\320.v3\014m\274?\230\237\312\270\222[\314?\274/\260h\232\003\327?\260\356\267\r\306\267\334?\360\200\024\352\325U\327?(\364T\333\214j\312?\000\307a\010T\374\213\277\342-)\372[B\322\277X\254\201\272\336\253\332\277\325\266!\367\216\266\343\277\n\022\3178j\020\350\277m\235\302i\354\246\351\277\266\260\371py\202\352\277:\251\232\215O\363\352\277\365+{\r\306p\352\277j\013&\302e\321\346\2770@\220\'=\220\340\277\275d\211\023\006_\342\277\356(\205\250\337\223\344\277@\204\037\212j\257\344\277\300u\2409\306\207\342\277j\211%n\331D\342\277 \2239\375\247\037\340\277\032\266\205lj+\333\277x\252\332\314\3704\321\277`\213\231El-\227\277P\301\225\264\350\261\310?\350f\374\212\216O\315?\000\260;\302\341\237h?\010\035\370}\337\305\310\277\332^\225\350}\337\325\277\264#\266m2\357\340\277\026b\220\002\274(\342\277\206\202!\362\331^\347\277x\033.\225\006\010\353\277\364\332 *\325%\354\277Q3\302\204\334\212\354\277in\347\361\210\241\354\277tu9\317\251\227\353\277.M>\004\022-\347\277J\277[\210\244c\340\277\334Y\226_l\316\341\277\334gC[\2627\344\277p|R\240\345Q\345\277n\365\027\202\325\001\345\2774\227\323\303&M\345\277\315=\033rdd\343\277\004\247\020\'\213\310\340\277\016w\2056\024.\327\277\030\323-\205\363\253\277\277\200I^\014\321q\266?\320)\"\247\026\224\310?\200\273\323\334\270\314\212\277\324T\027C1\274\311\277 \257?\302QC\326\2777\254\27480\322\340\277_\214J\206\274\025\342\277\324\004u\025|5\347\277\240o+\320\246\367\352\277\024#\342>5\353\353\277\210\217\367\334\247K\354\277\313\327\245\360&i\354\277\321\'t\2373r\353\277>\316~\317\356\024\347\277\223\240\\\203Y;\340\277\320\217=\013%\353\341\277\244\360\323\206{\361\343\277\234\304\240\001\024\'\344\277@0\314W\022B\343\277Q\245\027\261I \343\277\262\037b\361\277+\341\277r\234\373\333\211N\335\277\320\365\373{\215\326\324\277\264\030?\226\302g\300\277\200\037\325\366\032\207\234?p\275\022\250\312\026\266?\270a;\254p}\263\277\324E\303\367\317\326\311\277n\330W\014\200\252\325\277\021\341\356\224\274(\340\277P\004\333\356\272n\341\277\352\\\237\355\306\316\346\277\331\3259Ar\270\352\277\316au\'&\317\353\277\216k\031\301-\035\354\277\276\217\243\031\274J\354\277#\372L\230\302R\353\277\004\244\367Px$\347\277\320\3732r\026\303\340\277\272\354\263\037\364\251\342\277\315\304\346\247\315\272\344\277xY\222\344\013\321\344\277\234\307\002:\313\317\342\277\214\002\204\034\006\236\343\277\343?2~\344\\\341\277\025t\rJ\327\262\340\277j2\\\375M@\337\277\376f\203v\324\350\332\277V\tn\027u\310\325\277x*g$\240I\321\277\366~s\370\005f\321\277\004\355T\267\037\347\321\277jbP2\202\021\330\277l\215SfJ\206\340\277k\240\021\350\246Z\341\277!\307m\254\324\253\346\277\004\250P%U\261\352\277\2153l\'\361#\354\277\026y\317d\355f\354\277\243\203\320\313\203\225\354\277\247\001\231\nT\222\353\277\177\"\221\324E`\347\277.v\207\267\313\270\340\277\202\\wlVk\342\277\272\312\013t\373\361\344\277,\241*R\217\302\344\277\334\246\210\262gB\342\277\3627\316\264\213\240\342\277\323\013\252i|m\341\277p\020\363\013)\306\340\277\302tx\304\336W\335\277H\367\364)l\223\330\277:\302\261\215S\376\324\277\364\220\035\027\375\252\322\277B\307a}M\003\324\277T\326=F\2274\325\277\326b\360Z\\\270\332\277\237\035X\027a\257\340\277\316\"\002\265\031\334\340\277\257\365\205g\340&\346\277HxV\014\226<\352\277{\026\316\030jm\353\277\"\335\321\204,\342\353\277\214\346\222\251Wb\354\277\336|%\227\356Z\354\277\250\024\004\033\3108\353\277\366I.\027X\302\347\277\250\357\256Dy\254\343\277hpQ^\251\266\340\277h\335)K<\354\335\277h\353E5,\250\330\277\264\205w\275\352q\335\277Xd\261\266\213g\334\277\214\361\234\201\207T\337\277\366G%\242\304\034\340\277z\030\216/[\364\336\277\264jC\267QZ\332\277\330\313+9\300]\330\277~\317p\325\t\302\330\277,\256\206\216}J\333\277\235\341\334\267D}\340\277\246\020\346*\357:\343\277\010`#\036Ti\342\277\276\031\351\231C\010\347\277\256\211\271`j\361\352\277jb\273$I,\354\277x\177D\377\343\267\354\277\003\030,f\216\363\354\277Od\363\375q\307\354\277\377\017\353\314\001%\354\277\335-\"\313\223\037\351\277\314\307Pq\327p\345\277Q\366\n\246ZT\343\277\204\002\024\024\366\214\342\277\370\376`\300\266W\340\277$\311\256\'\361L\337\277\3309z\314\304\213\335\277\266\"7\n\377\037\342\277\362\243\236\311\355\030\336\277\016_\017 a\311\340\2770\016\363 \177\303\336\277n\313jE\277\007\325\277\364yE\"+J\322\277\222\220\303fF\303\327\277\230?oh\237\024\337\277#\361\241`w\261\343\277\337\r\241\036i\254\343\277\334\346K\246SB\350\277\034\306(\210\2714\354\277\335\251\336i\357W\355\277\347\020KS8\211\355\277\304\033A\327E\210\355\277t{F-Bf\354\277\241|\276]*\254\347\277\r\027\325k\301$\340\277\340m\266\332*\352\342\277\265Ky|\347}\346\277\000L?^\236N\347\277\032\212\r\332\255\321\345\277|\013\030\340\222\345\346\277h\365K7\021n\347\277}\r\230\320 \005\350\277\251\354\014g\337\325\346\277\t\335A9\223\225\343\277\302\377q\372\274\273\336\277\3267q[3\314\326\277z\034\352\305\244\312\326\277Z\310d\030aG\327\277\234\n\274?4\310\334\277\004\346w\223\345\010\343\277|l\274\t!\251\343\277\352\202\212\335(W\350\277\002\366m\255\243+\354\277t\320\024\271\343E\355\277\225\374\201\335\022x\355\277h\022O\2256v\355\2773\026\351X\3657\354\277m\003G\275M\335\347\277.9\326`%\373\340\277I\213\321\241 z\343\2778*\222\3215G\346\277J\216\262Y\236\276\346\277\014_\345\026\370\t\345\277B\270\355\2120l\346\2772\262\3072\344[\345\277\\\016)`1}\344\277\302\027P\310M\204\342\277\244\256\215i\031\216\336\277(>p\002\315\026\327\277\276\031\215s\235\317\320\277\264s\337\251\377\253\321\2770\003\363\326\022\301\323\2774\347\261\230\332V\331\277V\333\375]9\255\341\277\312G\343`b\226\342\277\024B\226\347*\230\347\277\311B\350h\276t\353\277\275w)\202\243\216\354\2772\030.s\206\355\354\277\260\252\331b\351\375\354\277,\315\353\311q\315\353\277r\374\022\032?\216\347\277\326A\014gO\221\340\277\\$C\224j\364\342\277\226\211.\326\257C\345\277\334\325z\020\303<\345\277\272\'\374W\372\276\342\277\204\374\322\233\257b\341\277\242wm\263\261L\337\277y\252!\243\244\370\340\277\036\304\262\216c\332\341\277\322\270\035B\005\254\337\277\002\313\346\255\260\003\336\277\236x\326\033\374\026\327\277P\330\261P\203\321\324\277\264=^S\361B\331\277\322\226\363F\322\351\335\277\230R\202HMa\343\277\374\274Yc+\213\343\277O\031\245\261\034q\350\277\r\341\311\321\264\'\354\277Y\027i*8#\355\277\314 \252a\014k\355\277y\362T\032uU\355\277&@\216T\341\034\354\277\206\317D\032\2258\347\277\332U\021\3761\r\337\277\022\025\372r\365p\342\277\004\325)\000\202i\346\277\202s\353,\2612\347\277\334\026\014F\\\327\345\277tx\276\\\177\275\347\277\261[\030\264_\263\350\277\364\276\231\340\357\267\351\277\031\270\n(\334(\351\277\243_\311\374$\340\346\277F\252\341\212\3116\343\277\266W.C\247\000\337\277z\377:\216[\277\334\277\354\342s\205\t\316\332\277\336$W\215\0356\337\277\246\007\227!N\236\343\277w\2434\010[\250\343\277\352\010\351K\363.\350\277\364v\346,a$\354\277\367\036\266\331\200=\355\277\316\351}\024j\245\355\277\313\346fK\320{\355\277\235\350\010\276\372\014\354\277\n\320uM\001:\347\277\240\261S\356S4\336\277\204\340X\234\367\324\341\277\227\217\314\264\025\356\345\277\221\250S\216\322;\347\277\307\324\245\373{)\346\277}\212\353\312\t\364\347\277\364|\341\203\357Y\350\277j\035\360q\r\327\350\277\320@\250\367\377\371\347\277\346`\265ta\273\345\277\240mu\304\367\263\342\277g\257Y\340\357\001\340\277\306a\357\017#;\337\277\370\025g\320\337\240\335\277\354\324[\032~\366\340\277\036\322\005at\355\343\277Y\313\'L\247E\343\277\010\033%\221\343\377\347\277L(W\323.\346\353\277\366\300\317\237\330,\355\277\245\233\030\305\336\236\355\277*\335]\243\212\265\355\277\316\201\335\201p<\355\277\0145\373\372m\021\354\277\251uz\035\371a\350\277\244\334\316\311\205\354\344\277\032\304\265f\333\024\343\277E\251\236U\030}\343\277\225O\314\363\276\372\342\277\000<OS?7\345\277\37619\322F3\346\277\222mpE:\350\346\277\231u\t\371\201\037\346\2778|\332\010\005\'\344\277\220\214\0254\030\276\340\277\222\223t\207|v\334\277\252N\234\032\333\030\335\277\302\021\331\265fo\336\277\240\033\0228\324\222\341\277\306M\213b\026\350\343\277L\036q\347|\000\343\277r\210\215\'=\236\347\277\306\026,\306\304\206\353\277O\2009\347}\337\354\2772V$\nVl\355\277\370\310\214\205F\254\355\277Z\263\252\352\035t\355\277\214_\037\236\261\014\355\277\333\002\336\265q\033\352\277\0106\212\357\275)\347\277>\357Z\273-4\345\277<\245\264\247\001\327\344\277N\013(\334\245\367\343\277X\236L\365\211\344\345\277T\254W\257ty\346\277J\204\014\216L\347\346\277\\R8YJ\n\346\277\002\324m\325\346\377\343\277\\p\227>\001\322\337\277.Mh%\207P\330\277L_\272kc\177\330\277\326\270\305\3775G\330\277\304h\375\014\037e\336\277\320<\375~:r\343\277R\215\307\243\032]\343\277vv\310\245\352\362\347\277\335b\365\361%\350\353\277\375d\332\262Q\022\355\277\335\204C\365i\203\355\277V\263\0163\237\213\355\277\345\247\025\347\244k\354\277\352\020\254\2577\350\347\277\036\243z\371\374\325\340\277\240\206\020\001\237\023\343\277\207\316M\377\357\215\346\277-\021d7`Y\347\2770\025[E\257\320\345\277\322\315l\362\373\353\346\277 \177*9r\275\346\277\267\351\212QQZ\346\277$\342\004\026\343C\344\277\242\007\2277Y\217\340\277t\025i\364&\007\330\277\364}G\215>W\321\277\244|<\016\360\241\323\277,]\371A\320\214\326\277X`\0060\277\272\334\277\300V\375[c\022\343\277\235\"\266\t\006|\343\277#]\223B\001L\350\277\305\340+ws\024\354\277\232\341\372S\210\'\355\2773cF!9s\355\277p\026ma\375]\355\277P\362\022\311\n7\354\277\245\177\371.\325\256\347\277\030\266\005\2752\340\340\277\230t\361\235;>\343\277\004]r\222\250m\346\277@+]\246\340\357\346\277\006\322\252o\002D\345\277\220)/=\353\006\346\277L\357n\000\t\211\345\277\222\350\212\264\310\331\344\277\000#\257\3061\332\342\277:\353\241QN\"\336\277\024\307\224\310{9\325\277h\354ll\233\003\315\277\330\323\363\004wx\317\277\340\345\326E^\352\322\2778\026`\302\346\246\331\277T\245{\317\265\310\341\277L\310nk\307\266\342\277\324\274\3341\277\303\347\277\350u\363\324B\244\353\277\204\300O2\304\265\354\277\271ft\016g\375\354\277\026z\304x\034\360\354\277\276\017OS#\252\353\277<\242\002GR\334\346\277\322^D\256#\233\337\277\266l\246Q\030p\341\277\245|t\243\000\374\343\277\240T\236]\320$\344\277~G#\t\210\261\343\277\"\376\313\004\253\337\344\277(\367f\204\330^\343\277\014\"RF\212\005\345\277\224\247-\225\333\264\343\2778\"\240\207\233\345\341\277\000\242\263\230qY\337\277\244%jI\027\234\330\277l@Y\027\207\274\326\277l9\216}\330#\331\277\004\315\341\035 \241\336\277\351V\330\262\347g\343\277\272\306z\203\212x\343\277\226T1\033/C\350\277\010\024/\250O\007\354\2778\252\206\346\275\030\355\277\217W\221\373\007Y\355\277S\233{Y\256a\355\277rf\3341\374#\354\277;@\266{&J\347\277H\206(Zk\005\340\277<\346\270V\257Z\341\277\353\205\352\225\355p\344\277\2623\001s\310u\344\277X\024\341_x\323\341\277kAex!\235\343\277\310}\233\030\016\304\344\277C*4\345y\306\345\277ww2\257\036\016\346\277.n\341\034\310\035\344\277\372\227\240\353\356\251\340\277^\242\323?+\n\332\277b\363\206\n\327\360\326\277\020\2023\336\230\250\331\277\370\312|3\177\304\337\2774O,\223\310\277\343\277\256\0225\034\250\205\343\277\371]4\203>=\350\277l\202\355Ym6\354\277Ty\344\355\302h\355\277\367\346\260\216\375\260\355\277\363\272\305\031\270\230\355\277A\247\013\257\217N\354\277\030\023G\t\243F\347\277\250\026\006W\216|\337\277\334{l\247<\250\340\277\017\254\355^\331)\343\277\336\023\226p\235\025\343\277^@Y\326&\343\340\277\234\020\371.\021\317\342\277\244\237\356\230\2178\343\2774\306(\215\373\223\344\277\276J\375\272\020\310\344\277J\017\312\237\255t\343\277\006\227\313\257\323\023\340\277B\333\305\245\3276\332\277\002\343\tk\207\236\330\277\300\014p\220\022|\334\277h\275c>S\005\341\277T\357\032/\227\343\343\277\375EAW\254\332\342\277rU^\001N\232\347\277W\2630\277\277\273\353\2772F\023\255L\023\355\277!\361\214\243\006\201\355\277\035\326\370\001h\213\355\277\027\262\n\034u\006\355\277\031\357\364\314\'\205\353\277\034\325\211\262\322\261\347\277\004\363_\022Dz\343\277\2345\367\026\024\274\340\277\340t\257\004\253\362\336\277\276\275\364\215\306\236\333\277\366\215,Q\344\311\337\277T\024\303d\305\222\340\277(\211\020x\215\207\341\277\304\342\035\251\240\241\341\277b\206?\234\020$\341\277\374\377\214\033v\316\334\277^\210\334\364nX\330\277bq\022x:\024\330\277\2643R\3339\017\335\277\236L%\'/0\341\277oL\001\377\216\247\343\277\356\032\3405\350k\342\277\266\357\376\245\315\013\347\2779\225\004L\212,\353\277\255\244k#\317\260\354\277\022\243\004\366\2277\355\277\362\203Z{\266j\355\277\362E\003p\333(\355\277\010\031\225\027=c\354\277\376;\006\367\235\213\351\277y\333/@\230%\346\277\302\307\"\212\2326\344\277<\230\213\320\315\333\343\2774\354z\366\302\253\342\277\204\023v\265\331\346\343\277\337\253[\017\214(\344\277,\275\347\264\224\341\345\277\020\2160\305\202u\345\277\037\313\201$\365\252\343\277l\225 VQ\274\337\277\034\265\013\320\030T\330\277\234\322b\304\317\377\326\277\220\374\2106\360\t\330\277\212\345\310\370\027\267\336\277\330\001\326\353G\203\343\277\237^Kt\370h\343\277\0214- 4\331\347\277vr\373\232\001\342\353\277\031~\344\336\342=\355\277d\246k\322\335\272\355\277\031\270\352\033\256\207\355\277LJ\265\340\0138\354\277\304\300\3453\317O\347\277\262\262\314\342\367g\340\277\034I\350\326T\231\342\277F\205.\213`6\346\277\036X\3238f\370\346\277\362\367>\335No\345\277*\235>\177\363=\347\277yP\274\320T\344\347\277\026\352%v\353\025\350\277\230wQT\377\344\346\277,eW=*\027\344\277\314m%\270\214+\340\277\316\273 \246\263P\330\277\372\311\334\376!\355\326\277\n\345\021\357\010\373\327\277\214\224].\206\352\335\277}]\330QUM\343\277\276\037`\256+\220\343\277\232\321\215ES\035\350\277:A\202\300b\002\354\277b\252\024R4F\355\277\'\256v\033p\276\355\277\264g\244\032\244\223\355\277\362\232\256%\336Q\354\277\0216\327%1j\347\2772\250L9\371\220\340\277\353<\010\261(\237\341\277\316\0344\270\350\r\344\277\370\325\277\3429\313\344\277y\322$W<\265\344\277(\230\2055\251\336\346\277\2308\002\370\n\360\346\277\n\202\034*\272\356\346\277\274W`\275R\235\345\277v\217\374\365\262\256\342\277\n\301\213\240\343\251\335\277\356\203\344\330\301\325\326\277\346\324\251\346\225\317\325\277\250\3359\216\260/\327\277\242\037\217\026\303k\335\277\240\374\256x\320\270\342\277\224\331\2211\205(\343\277\2163\340\332{\373\347\277\340\033\344\330\331\343\353\277\366\332\006\220w\014\355\277\024\201\3011\tu\355\277\225\274R4ei\355\277\227\013\274\250#\033\354\277@\316\366~\\$\347\277|\205\375\237\024_\340\277\004\332\001\257\r\300\342\277z*<N7W\345\277\376|\216\344\357\326\344\277\263\256:\252\t\333\343\277\315\350t\370\275\272\341\277|:\023\007\266h\343\277\242\326\205\330\370\030\347\277\320\020\324My\220\346\277 \245K\311w\211\344\277\026\314i\237\217U\340\277:@D\303\013\342\330\277`\022L|^b\326\277\332\200\235S\216\213\330\277\242\005ir7\375\335\277\t\001\200i\217\017\343\277\206\n\231\325\313S\343\277K\203A\014\013#\350\277^\246\304\333\251\371\353\277\311/\335\007Z*\355\277\224W\207\334\273\227\355\277\345\220\n\032\237i\355\277}9I\275\351\037\354\277\370\362f\2235\010\347\277\010}\321\230\245\331\337\277\312\"\342\272\364E\341\277\352CBK\212\225\343\277\\\213H@l\020\344\277\272&\352\373\nQ\343\277\246\221N\\\3616\345\277\200*\003\316\027\r\346\277(%5q3-\347\277\354Y\020O\254\014\346\277\325]\350\221\007$\343\277Pq\237\341\327g\336\277\310#S\244\211\205\327\277\0026\342\302\025`\326\277\276\276\0213p$\327\277:\363\32579;\335\277\270\177~O\303\240\342\277T\220\302\351\357\010\343\277w\343\211A\020\353\347\277\302i\372,\036\334\353\277FKX\347\335\360\354\277\2031Y\3356\\\355\277!qN\336Y>\355\277xh\245h \376\353\277\230\354\034\301\240\204\347\277\022_$TM\364\340\277n\\Z\212\311o\342\277b\025\272\270\306J\345\277^\333\033C\341\374\345\277QX\341=\t\200\344\277\364v=\033\255\303\345\277\202\356\026\350R\225\345\277\313\227\347@\233\264\345\277\330 LsOw\344\277M\013\237\330 \253\341\277\030\202\2627L\273\335\277Ry\330l\223\325\331\2774}\321\254.\327\332\277\324\212\"h\3031\334\2778\300gAk\010\341\277\177V\no\266\330\343\277\'\033\213\251\376\035\343\277<\321\240\365L\324\347\277\300\346^\002\242\232\353\277\212.{\275\020\362\354\277\245\331\026\341\372x\355\277\206\017\027S\036\210\355\277oX\271\n= \355\277Jp\213\224}\311\353\277\313\271\024\3624\016\351\277R\214\010*\214\276\345\277E\304\'\304\007L\344\277\004\243\257R\344\377\342\277\354mRh\224c\341\277\211\347\241U\343\221\343\277}p\017L\035~\343\277\036\200U\361Fp\344\277\236%\330\244\336\302\345\277:\027\237d)\376\343\277N\372G\001x\242\340\277\030\000Am\037\201\334\277dI\231\373\2329\335\2772\213\244\307\003\323\340\277\362\210\\\272.\023\343\277=\246\016\253\236!\345\277*5\027\354\350\303\343\277\226\267\202\010%\373\347\277brl\370U\262\353\277\020t|\333\022\342\354\277\350\330S\017\332w\355\277@\230\325^\341\251\355\277-\231\377,hf\355\277\325\344Y\240<\227\354\277B\241\221\3248\227\352\277\352\003!&\200U\346\277\312\372\345K0\235\343\277*\264\n\357\223%\343\277\230\325+\tv|\342\277\344\2001\343.<\345\277\343\373\305\024\247\020\346\277s\251\325\306<Y\347\277\232]\360F\355\307\346\277\210c\374\304<\337\343\277\2326\342-\010\'\341\277F\366\212\241\270\261\336\2770& `\023\234\336\277<\303\221U\212\370\337\277.\212\216\364\263L\342\277+\250\026\277h\326\344\277-\006C\221D\326\343\277\035\014#\351\251\033\350\277Q\266\336?\232\310\353\277\340\260\250\257\032+\355\277M\306\221\000\020\231\355\277\246\220\226\'6\254\355\277\247\256\215\322\215c\355\277F1\276\nE\213\354\277\327iO/A\252\352\277M\005!\201f\202\347\277\"\036\254\235\352\272\345\277B\201\274\200\261\355\344\277\370\347\343>\230\323\343\277\310\230\177y06\345\277\276\372[DP\203\345\277\310z\261\036L\211\345\277\002\n\245\177\322\335\343\277g\365\351\216\222\025\341\277\250A\355\200\016\341\331\277b\333\006\335\333\226\322\277\332\375\332\303\006\027\322\277\210\010Mxh\375\324\277\306\244\177\257\r8\334\277\220\204\347\323\007\253\342\277\020\241\255\342\003\016\343\277\330\262:NF\246\347\277E=eSd\230\353\277\366\301\350J\240\355\354\277\231m\345\032/J\355\277@\r\227\312EE\355\277\037\217\037\t\262Y\354\277\024\211\325\005\303\223\347\277\362\316\241\007\273\314\340\277|\373\3577\037\250\342\277\365\032\214\351\370\345\345\277c)\371\206\275R\346\277\332\350f\265z\305\344\277\234\'\217{\214\306\345\277\222,\350]\353\365\344\277\232\373j\2342U\343\277\270\275\204\360+\326\341\277\206\227\303\023\271\314\337\277\032\221\254Uvd\334\277\240\302\353\242T\346\324\2774-\037w\341\014\322\277*\365@:\376\350\325\277\256o\010\302\353\254\334\277>\251\211\260\263\260\342\277\305>\035uS\035\343\2776\347\021<\344\000\350\277%|\304\340\305\306\353\277\205\rf\215\320\002\355\277\353\270N\022\0022\355\277\230\\Cc\360 \355\277N\237\320\300/\025\354\277\346t\363\010\342\324\346\277<\342\371\311f\277\336\277/1\250\364\0166\340\277z*\002\256\256\365\343\277\334?\017S\333N\345\277\301#\266-\022\217\342\2772\367\250i\215\273\345\277\310\377M\312\227\346\345\277t\327\256\364Ms\345\277\027\022p\0062\357\344\277\310\272)(\235)\342\277>\036\263ZyB\335\277\016o\324TW\356\326\277\322\033\257?S\332\324\277\022\025h\252\252\201\327\277\262\010\237F\345\346\335\277\372\326\206V\217L\343\277\203\313m\024r|\343\277Q\205[\251\237#\350\277z\022\001\221\002\t\354\277\2510~\223\3743\355\277d\031\350\'\263\206\355\277\354HL\001Ht\355\277\344S\253\356d9\354\277z\035;\006}\345\346\277\312x3!*\r\340\277\324\265\003\032p\265\340\277N\321\326\266@\301\342\277\363\357M\325.\310\342\277\344\260\031\2210!\341\277\340\324\350\334\207\207\342\277v\035\317\335A\302\343\277\354\266\244\006\002H\344\277d\255\004\320\317\023\345\277\242\312\222\360J\335\343\277\330\276\034wg\\\341\277tC\206\317\0039\333\277\016\377\224j,\213\327\277\264\357O\243\311\\\330\277^\354\344\330\247\306\336\277\260\032B*\016W\343\277\312|\255\274+c\343\277\004s4!\241\003\350\277\n>T\224\323\020\354\277\341\266\276\314uC\355\277u\341\007\327\222\225\355\277\363v\215E\246\210\355\277k\325!\352\252;\354\277C\260Mf\377>\347\277[\031\350Y\314\301\340\277d\336F\205p)\342\277\216ruZ)X\345\277\270\260@\306\244\014\346\277}\3279\315/\246\344\277q\010\334\362\200\261\345\277\274,\354\004\343U\345\277\254G\230\030\031\232\345\277\353C\212c\260\023\345\277U\261\206BG0\342\277\332D\356\313\274\330\334\277\316.T\004Z`\332\277x\312\267\"K\215\331\277\022\177[\333\330n\333\2772\026\243=@\234\340\277\304i\375k\ty\343\277`\373{\223\\\357\342\277\341.\203\202{\254\347\277\206e\336\360\322\233\353\277.\200\256\007Y\332\354\277\355\025\027Y\200P\355\277<\247\227\021\020h\355\277i\232\034\244y\026\355\277\320y\371\273y\251\353\2770\210\213\371\364\372\350\277\206\353i0v\325\344\277\307\341\001.er\342\277\032\002x\343\3747\343\277\344tP\201\n`\342\277J\221T78\225\343\2778!t \326\274\342\277\226\337@\\\376C\344\277\306\377\223\365T\032\345\277z1\'q\222\344\341\277@\327\010\261\215\216\337\277\306\364>\274\016\316\336\277\332\212\306!\r\311\336\277\036%\202\210W7\341\277\005I\314\301\307\320\342\277\302}\375\350\240\030\344\277\260\224\026\230y\006\343\277\256\353{\352\230b\347\277B\211\336\336\0214\353\277\336<r\253\232\236\354\277z\\\re\236@\355\277]%\242V\345j\355\277\020\250s\267\321!\355\277\004U\316w\227a\354\277LpL\254\2226\352\277\265\246\241I+\210\346\277l?\214\021Q\203\344\277v\036J;\215\032\344\277|\300SX\274\\\342\277\373\364\321\250C:\343\277\005\376\307\025\217S\344\277\340\326\361\320\232\363\345\277\225X.\305c\261\344\277\317\210\r\t\214#\342\277\202B\006_\260\326\335\277\004D\020%\210V\326\277\202\321\271\345zV\324\277\n\005\232a\207\273\327\277,\330/:&U\336\277p\035mQ\321\263\343\277(w0Hz]\343\277\224\347Ks\366\213\347\277WF\222\3614\256\353\277\234<i\275\001\007\355\277>\331\364b\343n\355\277\246N\350\313rR\355\277\227\240\213A\233\347\353\2772$k\373P\002\346\277\272\322-\332_\004\335\2779\266\036\3348\261\340\277\024kv\036\013Y\345\277rK%\252\266\337\346\277\222\230\233\030\204~\345\277\300\266\021_/\233\346\27722?\317\033\263\347\277\342hC\224\211\302\350\277\024c\270{\245>\350\277\270\035\202)\016\264\345\277:\315\242\232&}\341\277z\223\201I\346J\332\277v\352O\227^8\326\277\246X!-\017L\330\277\200!\312V\353\237\336\277!\242k\304\354\240\343\277\030\377\r\261~\254\343\277\347SqB\326%\350\277\334H\224w\235\017\354\277y\004\313\032\274X\355\277 \333]\244U\264\355\277\013\013e\220E\216\355\277\377\025\215\265Q,\354\277`\275\2005\253x\346\277b\225N\237\277\371\336\277\340m\275!\377p\341\277@\204\270\227\210\262\345\277\350\315?*g\317\346\277\276~\036%\273\346\345\277\366\263\217y8g\347\277V8\314\257\024\361\347\277\344%\340B\366z\350\277A\3562DE\221\347\277\033wOXQ\375\344\277\250I\314\364\235\003\341\277^\005\247lS4\332\277l\232.\235|\212\326\277T\215\267\032\002\340\330\277\022\301o\335\376\313\336\277\001\013\272\2577\240\343\277\216\014\350\306\204\236\343\277\326\0204\333wI\350\277\360\311]\253q3\354\277\0103rS!t\355\277F\024?\355\304\275\355\2776RX)\333\261\355\277\203\350\344\262\250G\354\277\366\210K\\\022\227\346\277R\t\211\210\327S\337\277$\337J\253d\316\341\277#t%\217\227%\346\277\240\316q\016D9\347\277\212\022n8\026\332\345\277*\373\2211XQ\347\277\313\355\266\344\034]\347\277\023y<\353\260\216\347\277\352\000\033\026pX\346\277\220\301\314H^\252\343\2772\213r\260\311\262\337\277x\020\227\267k8\330\277\200\177O\026\205\224\325\277Ji\032.\t\306\330\277h\260\303\355%\003\337\277\'Z\314\376\315\227\343\277_c*1}\271\343\277\365:?,\335?\350\277PD\000\026\253?\354\277A:\t0\017T\355\277\034\ty\216\307\265\355\277\3048\376\017\261\265\355\277\344\350\256\241\212a\354\277<\355M\321:\351\346\277$<-\210> \340\277\350\313K\204Me\341\2773Y\034\r>\225\344\277\366\003\332\003\256\177\345\277J\021\350\341\271\342\344\277\322\204\033\232\n\250\346\277H\242C\346\212\230\346\277`z\301\267n\237\346\277d@<\351\323\256\345\277\342&\357k\000\376\342\277B\264\272\327\343\344\336\277\350\256y\202kU\330\277\030\017=\234\304\212\325\277\236\327\370?\177t\327\277Hs\315O\216/\336\277\234\302\227\206}(\343\277\320\t[^\266K\343\277\024\003\307\303\362\363\347\277e\007\r0\372\365\353\277\326L&\304\225\032\355\277\255\337\326-r\226\355\277\374FV\002\217}\355\277\317\202%\373\201A\354\277M,\337wV*\347\277L3\020M\362}\340\277\275^km\\\005\342\277f\323\3519W\226\345\277H\277$\266\216\375\345\277\344\323!C\037}\343\277,n\321\235\264\337\343\277\243\375WX\346[\346\277\330f\024\277\006\261\347\277\240\303\216\207\025\374\345\277\213\311\377\207\\\031\343\277\352\207\355\r+\026\341\277\"\214\201\232t\317\334\277\350\361\226\250Ai\331\277\214\350tDeM\334\277\332+\025j%\332\340\277]e\001\225\331\227\343\277q\302+\257+\367\342\277\330d{\001\033\253\347\277%\330Z:\244\266\353\277\025\014\325j\271\307\354\277\016\016\t_J\225\355\277\316\026\014\214\177\220\355\277#\306\260\'\263#\355\277\312,x\202\260\277\353\277\345jWB\317\347\350\277\376\246\211F\212\347\344\277\036\3541\207\330{\343\277\351\001\352\235\231\223\343\277<\031\376\201\214\242\342\277\210\270N\223\204l\344\277\024\353R14\004\345\277\267\266\255Z\320\311\345\277\342\257\244\311\307f\345\277\323\311\377\224!\304\343\277h\326\217\212O\237\340\277(\337\260O\306^\334\277d\202\240\037\370\017\333\277\3045\212Qp\255\336\277\222\217\277\210\367\312\341\277\376l\3375h/\344\277t\326\327\361\334\033\343\277\0262p4$q\347\277\251\226.x\275\204\353\2774\331\346\014W\365\354\277\2563\352=i\202\355\277\202\024h\216\037\271\355\277 \"\004\271\321\222\355\277I`\025L\010\225\354\277\200\206P\313TQ\352\2772\007\234@^[\346\277\355Ck\014vA\344\277\336\307y\342\232$\344\277\242\330\027Y\025\327\342\277\232#\371\325B`\344\277\371\035\"\251\324\245\344\277I\237#\307\242\372\345\277\230\372\374\027\234;\345\2774\376\031K\177\237\343\277B\215\310;\300h\340\277LK\2519D\231\330\277\360p\262\217\320\253\325\277\220\036Yud1\331\277\\\350\224\333\231\347\337\277\360\006\324-\034\372\343\277(\272\341\276\221\273\343\277k\333R^[\010\350\277oT[\372\003\024\354\277\361b\226\036]]\355\277X\264G\334\215\310\355\277\346\257\213g\337\310\355\2770F\031\276\254\221\354\277\324\236\007\027\212\"\347\277\n\364\243qc\212\337\277\222\270B]\272\361\340\277v\337y\335\336\207\344\277+\325d\030\037&\344\277\352\257\302\254nC\341\277\261\2642\310\257\314\341\277R\022\2639\3467\342\277\342\273\304\206P\352\342\277T\265\342\332\221y\342\277>=\341\267Q\255\340\277f;\3153\240v\330\277L\211\253\334\310#\313\277p\374\010\232\202\303\312\277Dp\225\271\314\343\324\277 \372r>\325w\334\277\360\250Q\245i\326\342\277Z\371\376zF\n\343\277e\355-p!p\347\277\004\303\235\364I\311\353\277\276_\235\325y\024\355\277\035\2263\220\212o\355\277\373\221oy?P\355\277\026\336\326[\221\357\353\277\346t\307s\200\324\345\277\374K>0.\022\332\277Vv\253\371x\030\334\2777v\010\014\357:\342\277Dvm\273<\234\343\277\316\336\321mX\363\341\277\210\016n[\374\200\344\277<R\204!\256.\344\277\032\244\300\207\246\003\346\277M\233\251\021\224\315\344\277\300\322\316<\262\232\342\277f4D8C\010\336\277R\2361?\305\231\325\277\006\322\324|m\351\321\2772\222\360dm|\326\277\270\022\006\014=n\335\277\0241V]\355\346\342\277\350\246\217\275\035O\343\277\006lCle\276\347\277\251\364\037|\240\346\353\277\376\241\3479\243G\355\277O\263\375\014\237\243\355\277\267M$\272Y\212\355\277m~\007\375\243\037\354\277\035\036\026hD\362\345\277\036\222\350;O\313\333\277h\333\321\345%p\336\277\317\023\331\242\222e\342\277<_u\352Tb\342\277dL\014\001\346\214\340\277\224\204\001HR;\341\277\016\'\363\016\366w\342\277\240@)r\267\205\343\277\003\017\320\024\301\351\342\277@\014,\374\025\303\340\277$\001N\304\r\n\332\277\234\212\303\233?z\321\277\270\262MM&\333\316\277\204\255hj\371\025\326\277\3300\201i\362z\334\277\277\300\351O\302\267\342\277\257-\021\360y\320\342\277$\306p\204\321h\347\277F\240^\217\023\275\353\277\334\214\326L\354#\355\277\301\004\213\t\"h\355\277\360\214\001:\240\200\355\277\266J8@\245\300\353\277\004\367\212JI\345\345\277\204\232,\032\310\216\332\277\226-\335\340\221\255\335\277HY\255\252Y4\342\277z\327\336\360\007\364\341\277\367,\t!\014\330\340\277\202\273y\222\262L\342\277d\223\302\234yu\342\277\376\227\234Z\201\272\343\277q\362\036\250\350f\343\277\244\2729\344\217\333\340\277\316YY\320 \310\332\277\332\013]`_\210\322\277\274\2672\235J\334\320\277Z\007\023qr<\326\277Hz\003\320\3750\335\277\266}\022\3606\350\342\277\021[\324\307\267\266\342\277\337\214\\~\374\216\347\277\203/\3524\272\307\353\277\264\350\020N\214 \355\277m\342\241\251\'}\355\277u6:\024*b\355\277\3260\376\357I\032\354\277,\017cE\030\234\346\277r\375\326\331.\353\334\277jn\271\316-\355\335\277\000\324v\037/\302\341\277\346\202\241@\237\237\341\277\242\333Q\002S\366\336\2779Y\313\007>x\341\277PP\276\"\261\236\341\277A\267\271\031\234\310\342\277=\312S\036m<\342\277\232\267@V\311R\340\277\266\344\177\316\223H\334\277\014\002\303\033\277\034\326\277`\353\232J\031{\324\277d\314\354\224t\217\331\277zk_\327\240Y\337\277\372`N\227\311\265\342\277\010t\027\2238\343\341\277\003\224\277\252q\342\346\277\314\037FY06\353\277rB\016\273\250\274\354\277\025\003>\276l4\355\277\265\377\302\240MB\355\277\377\213\242\246|\330\354\277\311FSB\244\'\353\277\000}\246e\316\303\347\277.\030\350_\325\035\343\277\016H\205T\025e\341\277\267\377\023\204<\274\340\2770\006\236gi/\335\277.\'J\320j;\341\277d|\007\374m\253\343\277\235\026\214G>\016\344\277\326\375h\232s\r\343\277\357)~\272\362\307\341\277\2609\251r{T\335\277\334\341Cn\207\177\330\277\372/\030\356\335\253\327\277\224\230L(\001\250\335\277vx)EA\231\341\277\212\355\271y\264\313\343\277\206S\036\323\360k\342\277\311MY9\323\274\346\277<\0058\243|\361\352\277H\342\003\231\212\210\354\277\025\006%{DE\355\277\331\005CC\037R\355\277\204\t\361\266\2571\355\277/\233\314\374\375\373\353\277\274\350\220\343\266\224\351\277S\367\326\332\216t\344\277}\300}m+\316\340\2772<\340\343\223*\337\277\000\255\010\320\2662\335\277\000!+W?\326\340\277\020\243\266Y\230&\343\277\006\234!\021&\323\340\27762\3147\370\014\335\277\224-\2072\277U\335\2774\223\215\277Q\246\325\277F\365\351<\352*\320\277V$G\270a(\320\277&`.\321\302\317\324\277~\241\005b/e\334\277\201I(n.\241\342\277\204\264\020\237\201\231\342\277D|\236-\354\365\346\277\210\361\270\245\334;\353\277\245,Q\357\016\270\354\277\304\236\334\220I(\355\277\3739j\010\316\r\355\277\020\252X\036Q\225\353\277\200O;V\243[\345\277\2368:w\020Y\332\277\312a\004\317\224\336\335\277\026\307\032{\014\336\343\277LK)\365\201\226\345\277\224\306\305\260\007\245\344\277\242\037\376\010o\244\346\277\2045\035\035Wq\347\277\266\tH \3700\350\277\'\2209G\\F\347\277\210\003\246!\036\271\344\277\276\271\230z\376t\340\277\374\010\001u\245W\327\277\016\306\225\321\036i\322\277h\021\213\321D3\327\277~0\352\251\257\314\335\277D\214\327\037r1\343\277\266\352%\277\3149\343\2777\211\341W\032\330\347\277\232\322~[\236\373\353\277]\204\312\213\310F\355\277\262\341\016\344\310\224\355\277t*\263\347@\216\355\277J\244\362)\345\033\354\277v\212\014?\305\330\345\2776a\361\370\014!\335\277\300\020\334$\357V\340\277\024\327\025\333+\277\344\277|\350\310\310pg\345\277\"\330\020!\013p\343\277\022(Z\3054x\344\277f{)+\245:\345\277\234\360\rM\027\334\345\277\266U\236B}\321\345\277Z\231ar\364\301\344\277n\213\034\310X\323\340\2770\314\272\002>\017\327\277\224\275\323\224\t\033\322\277\014J$\254\345\356\326\277nZb\332\305\250\335\277\240\240Ms\026\023\343\277\306\337\244\023v\t\343\277B~u\225J\272\347\277=\354\376\211\321\312\353\277\364{f\253&!\355\277\033_\205\226?|\355\277\261\n\370\345qQ\355\277\205\306\024\345\254\301\353\277\240\322\351\260\326\222\345\277\026\273\351\372\364\356\333\277\201\210uJ0\007\340\277\034\036\340\325\247\323\344\277$\3769,XX\346\277:r\255*\2313\345\277\034\232NG{)\347\277^Ge\312\253x\347\277\224\\U\206\010\004\350\277\252\253m*!\300\346\277.`\350{\360,\344\277\262\001]7?-\340\277(VM\035k\203\330\277\220\274W\224\323\376\322\277\372\320\376\375\227\037\330\277\016\373\320.\016\\\336\277\200\244i\020\324]\343\277\302~\340rD\\\343\277\200\222M\272B\352\347\277\254\202\206!\347\377\353\277\316@!\371\357[\355\277\261\020\355;\250\240\355\277\216\234\026\225\217\205\355\277\352z\030]\323\027\354\277PF\213\322t#\346\277\264\007\005\226a\242\335\2778\000`\217~\253\340\277\246;\336-\t\374\344\277\3524\324\326C8\345\277\204cV\014\201\362\342\277\034\354\036\307\330-\343\277\354\341\330\234\020\016\343\277\260C\236\237\310\243\345\277\371\212\243*\235\350\344\277<\351\\\270=\246\341\277\214\r\215?B\301\333\2772\324\2040\330\373\321\277:A\203\177[\020\321\277\024U\034\320t,\327\277v\036\240\357b\313\335\277\0334}\022\021\n\343\277\325@\366\004x\254\342\277\362#\230\237T\211\347\277\016\354\374|\331\320\353\277\313e\036\257\200&\355\277\314\272\326\246\254c\355\277d\331\212\346/<\355\277\220\'\002\264@\326\353\277*\227\311\354\376\267\345\277@`g$\013>\331\277\304\037\200\242M\315\331\277\232,rs\3224\336\277~\310rk+T\336\277\332R-\005\310\270\333\277\310\307o\316\024\234\337\277\307\212\263\2615s\340\277\354\244`\234t+\341\277\335\265\010\2557\377\340\277x\034V\002\352k\336\277P\032v\2656U\327\277R\236-?\340{\320\277\264\217\t\233\314\276\317\277\030\333\243\367&\344\325\277J\234&\003\3342\334\277\316k\251\273\335w\341\277\216K\r\215\211\350\340\277\r\213\240\203}\357\345\277a8\203\226\324\221\352\277\010\321o*\023.\354\277\343\023\000\214_\276\354\277\310\216\374yx\326\354\277\222\365]j\260h\354\277E\035Zc;\221\352\277\000L{\375\230\005\347\277\034\316\260\236\205\211\341\277\362\353!\34225\334\277\350r\204N\\5\331\277\316\372\223\221<\261\325\277\354A\254\304\205`\331\277\026_\230tN\207\334\277?\267\364\005\244#\340\277b\243@\371\302c\340\277\330\213\271\301Ou\337\277\256\276>\335\365\203\330\277b\233\272r\3615\321\277\256\320[\364\200x\321\277\372}\324\375\036}\330\277\274\013\322\377\271I\336\277>1\361\221\020\273\341\277L\2105\275\332\275\340\277\373\372\245\254\317G\345\277\357\301\301\027\256\365\351\277B\303\020\255<\230\353\277\032\006Y\376fv\354\277/\237`*Y\237\354\277D\023\335\357`\220\354\277Q\020qjF\321\353\277\006\306\306\312\360\344\351\277!\272\2113^\261\344\277\222\215\225F<\003\341\277\004\035>\253\235l\340\277>\220\340\353f\234\336\277\324\256\330\320\261\300\341\277c\321\373\031\0302\341\277h\231\n\305\010\374\340\277\313\002\334\207\250\367\341\277\255\000\310i\253*\342\277\244\314\251\355\2037\337\277\204\276\276\363!\262\322\277\350\030\365\232\267]\275\277\264\3630\3046\364\312\277\264\214S\026&\220\324\277\nE\334K\265Q\334\277\302\247\316\302R\243\334\277+<[{\201\014\344\277\322\034-_\013|\351\277\330I\310\372:\276\353\277\225\"&\353\302\212\354\277d\003C\351~\241\354\277\010\257\327\204\261F\354\277\220fY\221\177@\352\277\215\336L7\340\220\343\277\004?mQ\244\334\327\277\256\362&r\026\001\340\277\322\274\246&\2467\344\277.\206\226\031e\242\343\277V/\021\357\260\322\345\277^\213Qx\253\307\345\277\2562\275\013\245\231\346\277\206q\366\253\220p\346\277 ?\3204\331\234\345\277\007\014)\337\274I\342\277\006;\235\200L\234\326\277h\275;\257\331{\276\277\374[\246\374\003D\310\277X+W\033C\n\324\277>\240\325\265\243\337\332\277\226\235\010:\273\251\333\277L)\274\236\005\017\344\277o\360\337\234\266\274\351\2776taM\341\022\354\277fMr\207\263\335\354\277\207(D\331\220\020\355\277a\334\006\301H\312\354\277<\264\230U\310\363\352\277\002\244\023\352G\223\344\277\\\204\2132e\022\333\277\343#DF\037\330\340\277\365\266\344\372Kt\343\277+\261A\270\364\315\342\277&\n\272\230\3607\345\277u\225nO\277\360\345\277J\326\217\243\034\375\346\277:\356|\020xL\347\277>\362\272\370tm\346\277U\210^d\271\222\343\2774M\366J[E\332\277\370R\n\227\334\335\307\277t\\\360\253e\272\315\277\000\207\317\304\325\322\325\277\\.\317Z\351i\334\277\334\232\t\206H\252\334\277\334\203\335\353\032\206\344\277\022\353\004\2212\r\352\277\244\370.\274fL\354\277u\375\246\253[/\355\277\2003\t\370\225Q\355\277\224HJ\310\272\030\355\277\303\347[\010\224:\353\277\270q<JF8\345\277T\314\003\253\204L\332\277\370\336\311\217\036\332\335\277\220\356\225\035\364\221\341\277r\341\177%\220\233\340\277\2123\224\312t+\343\277\375r\323M&\252\343\277\344\221\013\273\0038\344\277d\026\266\204B\374\344\277nY\n\330\233&\344\277Z\265\274\245\367\365\341\277dm\3533\024\025\330\2770\331\205\300_.\306\277\230f\021E?\024\315\277\334\2102\027\371<\326\277(\266\365\341\360\367\333\277\354\031\'\313\270\330\333\277\344\340\357\266\2473\344\277 \374\277\321\254\326\351\277\276\235/B\3278\354\277\371\244h\\\036\007\355\277\343\335\214By)\355\277\254\207\t\341\230\014\355\277\013\210\360\246\302i\353\277\006LI\300K\\\345\277\272\334.\214\336\314\331\277\320\241uk\376n\333\277\312OI\341\010|\337\277\306\023\021\367B\346\334\277h.CW\330\346\337\277\342\273&\274U.\340\277\275\t\234\247D7\341\277\325q\234\350\214\002\342\277\246\030\034\024N\217\341\277,\'\232\nl\230\334\277@\001c\023G\205\317\277`\336\365,\007(\275\277\320\003!+C5\310\277\300S\204\340EQ\322\2776\302g\212\305\250\331\277\256\355\226\357\272\246\331\277\006\034\006&\032-\343\277v\027^S6&\351\277\310\222\261\371}\273\353\277\231\326\311\253\327\271\354\277,\367\017\200\201\316\354\277\362\355\026\320\311\262\354\277\300\262\311\324d\014\353\277\036Fp\203\244\273\345\277\252:~\210\203a\335\2777t=3\307.\340\277\214a\315\247\225\241\342\277\245\241\025\035\340\234\340\277,\243\035\2741\313\341\277\272\034M\353y\335\341\277\334!\326z\252\016\343\277j\030\231\306<\221\344\277>\0021\314o\032\344\277\365\237\030\221\256\345\340\277\376\241\374{\226\227\330\277D@\3470\326\177\317\277D\304\357*\365\013\323\277Jz%\337\237\r\330\277\"\262\226\237E\311\334\277\316\234\3443\257E\332\277\365\225r:\327\225\342\277\332e\345\203\3133\350\2779\233OL\221\355\352\277\006\353\r\021\226\360\353\277\205\360\221\206yD\354\277\037w\342J\nC\354\277{m\326\360_\313\353\277P\006\231\203\270\363\351\277>\177H\'^R\344\277\306\001\305\375c/\340\277\352GT\260.\301\335\277\250\371\204\261\027T\334\277 O\326\325\256\311\340\277\030\r\036\030>b\342\277\224\215\360&f\233\344\277\214\252\027\275\264D\345\277\221\302\337\346\307\322\344\277?\014L\221\310i\342\277R\373\027\253\013h\330\277T\321\230\000\310P\317\277t7\270\260`W\325\277\036\251\312\270\341\302\332\277\346elL\300\260\336\277\032q\345\215\226U\333\277\006\233\215\352~z\342\277*\326\302\246&\007\350\277\324\245A&f\240\352\277\026\300\316d&\307\353\277>)\3150<9\354\277\376%Jk\376N\354\277\246\030I\351(\327\353\277A]\313\300E\273\352\277\277\2719\003d\224\346\277\260b\375\337g\231\343\277\320O\2625\316J\342\277\336\360W\241\214\"\341\277`\213\244\331\213]\343\277\202\336\211\311\355\003\344\277)\256\277\366\2200\345\277\277i&W\n\224\345\277\334\263\007<p{\344\277[\223\362\350[\356\340\277\204\252\003\341M\305\323\277$\354\321\301\275.\305\277\020$\311[G\221\320\277\322 \301\017\350\313\326\277\360\312\355\3172\373\334\277\246\023e\271m\355\333\277\226\347X0\235\200\343\277lA\346o\326\373\350\277\334\255\327\r<O\353\277\324\031\246\306\275N\354\277\346B\336P\265\205\354\277\245\335U%\177+\354\277\270?w\272\021;\352\277\215\334^\r\234\355\344\277\270\010\225\037\225Y\334\277|\325\\\361\377\346\336\277\366\267\216\"\337*\342\277\244\'\346\300C0\342\277\203w$\353Z\337\344\277~\022$\322\026\010\345\277\204B4\365\204\237\345\277j_;\325\320\370\345\277^$\352\035(\372\344\277\302J_\316\004i\342\277\306\262\236\332\351\003\327\277(\037A\356\377i\300\277H\014\226\013\322\271\307\277\262g\3063K\257\322\277\366\264p\010l;\331\277\256\007\262\315\r\252\331\277\202\021\024\336\r\305\342\2776E\355\257S\246\350\277\312\351\222\361\352\005\353\277\371d\274\267\236\321\353\277\200\231]\260\255\020\354\277\266\036\312/\246\244\353\277\"(I\'\370\233\351\277\344\344\237\362L\315\343\277\242\247[n\021\312\331\277\214\373A\013_q\335\2776\272\341ni\303\341\277\351\250\207\344\234\020\342\277\237\333\316\r-\265\343\277\272\220\277\226\370\354\343\277Tk\320\005\236[\345\277\014\272\375\325\240w\345\277\3076\374NhR\344\277\336Ho\230\207\304\341\277H\201 \030\232\003\326\277dt\266\333\311\322\300\277L\037\325\367\\\001\307\277p=\261\223\002\260\321\277\010\306\035\2535_\330\277\"\377C\236\210{\330\277\340\220\326\027\375q\342\277M\370\002\351\347_\350\277b\343/\377\216\267\352\277\3601\325\351\365\253\353\277]\\S\034\242\346\353\277\030\334U\242\005\203\353\277\"1\241\363]h\351\277\202\343[s\037\216\343\2770\025<\002\177|\331\277z\210z;\'n\335\277F\231\241}\n\331\341\277\226]\032rg*\342\277\300)\333\227\016\303\344\277\307\322\362.\270\202\345\277=\000\376Cnv\346\2772b\347\333<P\346\277N\214\033\014\235\257\345\277\3446\3524\224\264\342\277\370\347\313\273\270s\330\277L\216\201\200\334r\306\277\300HC\235s[\313\277|a\035\034\264\005\323\277\300\224Y4#\245\330\277t\217\010\022pR\330\277\244\360aQ\3425\342\277\323\304\377\323\2327\350\277\325Z\271/\203\251\352\277\356-/:\023\217\353\277\\\372\\\373F\306\353\277\345\267\0168J_\353\277\267\013\314\213\350N\351\277\'\322\315\026\311\253\343\277\\\237\034\036\235p\331\277v\034\271\010\361\310\334\277\002\374\221Z\250\304\341\277\350\271\366N-\021\342\277\207{\275\311\214\211\344\277\342|\025\370\312\354\344\277\234C\226\204\261\027\346\277\202\357\354\250I2\346\277\032\240\200\001\250\226\345\277X\203\365 V\342\342\277\310\3273J\025\014\332\277|\337z\216\320p\316\277BK\351\016?\217\321\277\200\233\030y9\r\326\277\234\210\376\277mn\332\277N\262\3458\334T\330\277\375\346\322}\217]\341\277\200\375NK}\r\347\277\013@e\210\260\270\351\2770;\217\";\326\352\277(\227`\007\261\027\353\277\244\267\014\002\376\357\352\277\332\037\365\246\231\375\351\277\362] \034RE\350\277\346\212\206@\014!\343\277\002&\"?\366A\337\277\202\327X\207\333\364\332\277\00227\305\315\270\334\277\004\234m\302\275\014\341\277PtWE\340\273\340\277\307UbOX<\343\277r\027\355m\036J\344\277\210\336\330\225^\304\343\277\247\213\021\342\216\267\340\277\006\254O?t\026\326\277@\322\303\000\301/\315\277F\344\177\233<\225\324\277\376\3505 Z?\332\277\322\237\246\ro%\337\277\014+g\261\243\263\333\277\266\236\332VzR\342\277Y\245\371\366\366\270\347\277\362\007Y~\2351\352\277~\203\323IO\031\353\277\327%\177\217\213Q\353\277\023\220\244\243X0\353\277n\032d\215[\222\352\277\n\345!r\036\037\351\277\000\313\262 \211\223\344\277\272\316\255+\375\274\341\277X}\356@\224M\341\277\310s}\215FE\341\277\344\222\177\311v=\344\277\177F%\253\020f\345\277\365\376\231\253K\352\346\2776\323*\220\254-\347\277p\331\201\341I9\346\277}\026\301E\270\207\342\277v\nA|\261\204\327\277@?z\364\274y\314\277\324\020\362\303\251\261\322\277\330\375\273\204\330\250\326\277l\207\372`\037\275\331\277\312\326\3156\301\317\326\277\372,\254#a-\340\277\004r;\212\013\260\345\277\234\202\266\207\326O\350\277\033\215\217$\226t\351\277\306\200RN\246\333\351\277\267cJy\307\323\351\277\335~\340k\200\t\351\277\220J\221\357\304H\347\277\230\342\010\272\227\266\341\277\200r\204xs\245\335\277\204\210\341|pi\335\277fp\246U\207\314\335\277\244g\336\016W\323\341\277\266\3342\240\315h\343\277\371\r\017MY\367\345\277\203B\241qC\210\346\277\230L>\014\231z\345\277ZG\363\246\033\310\341\277*\333\006\005q\023\325\277\020;\3225\341\357\303\277\000\314\037i\250K\312\277\344\363\"\271\216\022\321\277@:\324\335\353|\325\277\016\373\221@ p\323\277\322\034d;&!\336\277t\361\366,\376\335\344\277rI\322\214\002\225\347\277\343Wi\270\262\340\350\277\324\022\243\022|<\351\277\215\350\310nC0\351\277\256\222\352\327\314\"\350\277\204\353\316\'\350b\346\277\376P6\347\345#\341\277|3+\226\277\214\327\277\354\224b\013q\322\323\277\024Pt/\254a\323\277\006\221l\245N~\334\277\212\271(N]\316\340\277R\331.\032\267:\343\277J\226\376\316n\351\343\277\216$B\321\356\177\343\277\003,\347\371\342\031\340\277\364#t\376\266\022\316\277@\250}\274\217\213\245\277\220wVK\371\244\275\277X\020P\346\202T\312\277\302\302X\364<f\323\277\2342R\370\215\325\323\277\276\001\244XP\t\340\277\362zTQ8&\346\277%\370)\nR\315\350\277\262\226\000\266\322\331\351\277cj\201v\020\021\352\277\024V\335Br\307\351\277D\245\'\371\001\304\347\277f\t$\250\2600\342\277f1\262\345\302!\324\277\276b\251\360\3466\323\277\304\211\225[\232\004\333\277\032h\253So\364\335\277<jP\3442x\342\277\\\346\246*\322\261\343\2776n\257X\367\341\344\277\204\361\244\261iX\344\277z\222x\256\272\231\342\277\204\241\376\374K!\337\2774E&\020c\300\320\277\200\330\014C5\364\232\277\020\230)k1P\265\277p\006\232!\340\327\306\277*x\355+\013|\321\277\360\rq3\367<\322\277\370\302\277M\021E\337\277&\231\313:\316\006\346\277\330!3\375\327\330\350\277\032\242\374\363Q\013\352\277\2678\366Q\010M\352\277<\032\035\255+\020\352\277\320\2643l\332\t\350\277\222\356\034\026\001\327\342\277\032\242\231\373Q\323\326\277\014\3600\005*W\325\277\320\210s\255\355\263\334\277*\004\342\371\361\373\333\277\016\223\205\362a\237\337\277\013\320~\207Ad\341\277\365\360\r\002\260\302\342\277\342e\253D\263\333\343\277&\"\010\233\247\363\343\277\304/,\n\346\013\341\277Z\311\225F\010h\322\277\210\200\351\373b\000\271\277P)H\327p\271\303\277\034\246^q\346\360\317\277b\310\300\032\365i\325\277\272\351\251\r\376\033\325\277T\342O\203~\317\340\277\276\310r\234\002\025\347\277\366\177\007\226(\271\351\277\323\253\241\355\342\320\352\277A\000\324\030\364\023\353\277\3157p\304N\272\352\277x\234Q\343\310\343\350\277U;\225e3\017\344\2774\241\022\036\027a\332\277\226\024\215\200~\210\333\277 \2659\327e\276\340\277P\2123\333\254&\341\277F\341\'T\272X\343\277\020\237k\021c4\344\277\214\210\341\311\326\364\345\277\360\322F\002\252\032\346\277\365KW\242\036H\345\277\306d\362[\305{\342\277\344\365\\\377\3377\327\277\344d\360\262\375\366\305\277\010\005\006\254\323\201\312\277\326\266Q\031\\\300\320\277\352K\005\267\322\032\325\2770;\202S\213\326\322\277\370\254\354v\007$\336\277\024\314\035\006\004\200\345\277\303\207A\207\361w\350\277\001\210E\310\265\356\351\277\263\024\033,\025\026\352\277\346\025H\327\324\353\351\277\347&@9\344\206\351\277\0357`F\177\367\347\277\3146\021\177R\227\343\277\233Z\240\222\276\013\340\277`\257\021\332\322\216\332\277\332h\032t.\200\323\277\266\025l\337fE\323\277\022\372v\206\336\301\321\277\342<\301}\016\270\325\277&\375\237\213\334\253\331\277fZ\237`\315i\333\277\352\3037!\014\350\327\277,\225D5\217\240\310\277\020\033\375J\316\033\275\277pf\271\346\342\345\310\277~\201k\356\251d\321\277j\333s\260\005J\326\277\216\331\251_\3720\324\277n1\366\323\356\022\337\277\334x\363!\032\250\345\277F\311\320\017\277\246\350\277~\004k\320\036\354\351\277(O\331g\003K\352\277\276[\211g^T\352\277_x`\233\231\245\351\277\314\022\\Z\3375\350\277&\337\247\212\000\274\343\277D\374h\274\214\264\336\277\246\262h\350\235\325\331\277x\346\246\023\006\307\325\277\024\225\272\342In\332\277\200\355vF\177\002\335\277F\210T\247\236\324\341\277\252v\223?<\035\342\277\225\370+H!\210\341\277R1qj\234{\334\277\000\"B\t\230\232\313\277\340q\357=g\346\274\2774\370\334\336#E\312\277\274q\224`\377\272\322\277\230\231\3406\234\234\326\277\256\314\331T\263\000\323\277\256}R:\254e\335\277\365R\007l\373\276\344\277\272\201\217A\237\325\347\277{?\362w\223&\351\277\024\025W\327\023~\351\277\215/\356\201\005q\351\277\343\313\321^\362\005\351\277\026\217\016\361\270\226\347\277\210X[_\341x\342\277P\'\364\000\307\271\330\277T\327q\261(\177\317\277\250\313\2340b\305\302\277,\030\036\207\374\363\314\277\036{\336\270\307O\320\277\262\267-\217\005\262\325\277v\rF\307\305\032\331\277\\\230nW45\331\277\n\246\331\337\177]\324\277\240\225\377L\212\237\237\277\020\253G#!\023\305?\220\244\316J\2477\263?\220^|\263\355\235\242\277\344\213z\227C\017\307\277\024\373\335\311\243\255\312\277\276\022-I4\245\332\277\002f\304g\273\222\344\277\202\273\337D\033\002\350\2774_!c\010\\\351\277a\264\266%\245\313\351\277\266\342\273@B\251\351\277\"\243]\024\256m\347\277~BB\235:\204\340\277\310f\tU\374\357\314\277\354kD\265\243\313\323\277\330\350L\260\247c\336\277\017|j\246H_\340\277\003\340<\245{\312\343\277\222gH\232Q\244\344\277\023\365\014\216\207B\346\277\034\376i\355\264X\346\277\300\017j\017\353M\345\277\245\375l\232\331\253\341\277\002\263\211\343\332K\322\277\220\214\225\274\374\006\243\277 \\\240\342\336\377\265\277\234\320[X\263\356\307\277\024\212b`\023F\322\277\\)a`\254Y\323\277\302ul\027\024`\340\277\270\037\335D\213\307\346\277\370\362e\322;\207\351\277\340\304\207U\205i\352\277\256e2OJ\254\352\277\000\366\243UK;\352\277\314)@O`\360\347\277\317]%\030\017\345\340\277\372\331\337V\007>\320\277\302\032\333\331\374<\327\277\374>\352\377\017x\340\277\354\006\'\261\r3\341\277{\211\360B\tp\342\277\024{\205\367\037=\342\277\\\252+<.!\344\277J!\220\314\356\257\343\277\271J\370\220\275S\343\277X4\257\361\255\025\336\277d\000\007Y\333\220\307\277\200/p\270\363\235\240\277\360\215Z\240U`\270\2770\231.\363\255\336\312\277\336\303\303$\035k\324\277txyy?\235\323\277\344\261\243/\027\343\340\277B\025\333\252\301|\347\277<\254O\244e\205\352\277\264_9`\242\241\353\277\031\212\345L5\273\353\277*T\030\377k_\353\277\320\257\356\313\025C\351\277\2726\337B\306\347\342\277*\345\335\251\2046\325\277\302l\242\t\017&\334\277\334\375Ni\212\311\342\277\\\216\304\203\371s\342\277nD\n\205\236x\344\2775\337\313R\3614\345\277\211\322[\337,|\346\277&\305\271\203\211s\346\277\334i\310\217\240\242\344\277\003\250\204\304\205,\340\277\254\251\231\375\253\262\314\277\340M5\267\204|\243?\000\367\207^\307,\220?`/HPN\227\257\277\3007\202\rz&\306\2770w\006\222z\202\311\277p\333H\270\213\264\332\277\274\343O\304W%\344\277\330\341\212bB\000\347\277\216\013[h2\006\350\277\210\003\356AH\003\350\277@tl\335\376\\\347\277k\177\364\030\r9\344\277@YA\2460\'\327\277\300\376\033\321\361\005\223\277\254\305\246%8\247\307\277\022\266U\202\271\265\332\277N\310\256\000\242L\335\277\240wZp0R\342\277^,\256Fh\032\343\277\346\205\272\034\265\234\344\277\214\354\017\277\227\320\344\277\340\204u\376\234~\343\277d:\274!/\217\334\277(\002{}U\205\276\2778\232h\276\006\246\305? u-\014[2\304?\240\367\263F\017\220\266?\360\230&_\233e\242\2778\347\215^\260B\266\277\016\340&do\014\325\277\226w\014\000G#\342\277T\307\2134\215W\345\277\300\ng\220\371]\346\277\371\215`\322\005\210\346\277n\024\376\302\205\010\346\277P\205\021\r\2050\343\277\344\304\365\2025;\325\277\300\361\014\3064_\244?\200\305\212\200\343\006\201?\340\315\201\213Z\006\305\277h\312B\006\363\370\303\277\204\302t\271\2437\324\277 \300\017\036lZ\331\277\240l}\356[\341\335\277\030i\342\214s:\337\277\330,\203\374\302\030\332\277\200\206\236u[\207\317\277\240\034\244c\013|\262?\250~\210\330\311\263\321?\330d\334g\037I\314?p\331\232\226\233\273\277?\000X\272\266\360\253t?\300\255\367\256\364\247\217\277p\236\001\0368\t\320\277r\340\370\303\223\003\340\277\363\357__\272\r\344\277B<\353\314\035\262\345\277\212\034\017\300\007f\346\277\364\0133\307\255p\346\277\356\233\007\204\217e\345\277Dln\374)w\342\277,Py\202SK\325\277\0008W|\362r\267\277\300(\257\236\377\316\254?\020\351\245u\320\333\303?\360\253&Q2\017\264?\200\247uka\340\227?\200\222V\224\323\004\226?\200\301M\211w\256\220?@\360\311\341n\230\232?\240\265u\336\021P\273?\374\014\220\355\'\016\330?\220\212\264\216\276\276\335?\254\225<\034\366\005\325?\020`\266}\203j\311?`;\326\223\363)\263? \342M\"\\\367\255?\024,\267\010nQ\305\277N\216\000q\033\260\333\277\242\000\214\177K[\342\277\210\017\376{\273b\344\277\027\316\220!\337F\345\277*\364\n?rw\345\277\312\254\032p\316\351\344\277\004\031,6\361\250\342\277Dv\312\252\340!\331\277\374\322\336\2230\\\320\277\320 \202\264\203$\314\277\2740\224\313C,\311\277\270\005\223\023l`\322\277p>\030dN\207\321\277\324\320\303\343\371\357\321\277\360\337\343\246u\304\320\277,m\032\265xN\310\277\000`\234\000\345\2149?0\320=\340\203[\326?Z\257\343]\013\235\340?\234\366\367\312\013\265\332?\264\024\316F\nG\323?\000\3248\233\317\214\301?\340\347\253\2128C\255?\354\306$\3256\240\311\277\244&\036\206\361\324\334\277\350\\\361\233\264\010\342\277z}\257\266WW\343\2777\360m\002,\222\343\277\330\340\001}Q\363\342\277\372\212[\376l\354\336\277\340\343\265?\344\277\304\277`\305\351u\2754\317?pZ\202sz5\260?\210\"RK\312c\312\277\036\230H\214P\001\322\277P\255\373l;t\332\277\206Q3]\022\355\334\277LB\246H\256\230\337\277\026<9\324\023\214\340\277\332V\200S\312?\336\277r\271-\217|-\320\277\200\232TB\316\265\306?\310\323\235\232\306f\336?x\346\355\224G3\333?\3144\267\016\304\023\323?\370\214\340\247\325\336\300?\300\366\207D;\326\233?,\317F\365\366x\320\277\340\363fp_i\340\277\036\316G\032\250\362\343\2777\022 \273g\000\345\277\t[\332w\247+\345\277T\'L\017|p\344\277b\315n;\225\341\340\277\300\212\026?\300b\314\277\360;\306\207\326~\277?\220\365\237\354\363H\251\277j\366\257\272j\203\324\277@\034\t=pM\330\277\324\374U\203\215w\337\277\262\1775\214\256\222\340\277\316\324g\262yt\342\277L\254\365\245\205\027\343\277H\305s\260w\203\341\277\350=\252o}D\327\277\200\254]<\222Q\230?X}\375\2155i\323?\004\346\200R\250R\322?\320H\346S\242\236\311?P\020\241\335{L\262?@\366\307S\326T\226\277\252N2h\215E\322\277\010\362\3705\362\360\340\277Usj\025m$\344\277\351`\254\036\023G\345\277c\374\250\261\026Z\345\277\265\345u\255\301\221\344\277\010\204\026f\266\366\340\277`\033\352\374\005h\313\277\260\004!2\202\005\303?@s\251\262\362\236\245\277\\j\202\330\232\373\322\277\354\266\263S\243c\326\277\336A\305\317\0024\336\277\206W\352\030\336\025\340\277/;\310~H\n\342\277?\027q5\310\227\342\277T\261\357;\237N\341\277\246\217$\217\260\366\325\277\3400\3109\233\345\262?\004\201\325}\250\034\330?\034\212\245\026\312\273\325?\340F\"\017\265\244\316?0+\226\373\252Q\275?`[\274\251HE\242?\000\3560\227}\'\315\277\010y\001\310M\231\336\277\212\022w~\\\266\342\277e\225\277\204\327\325\343\277\016\351\237\206\201\000\344\277\222nd\236rI\343\277\242<\266\216\002X\337\277\\\"\212\302L\201\305\277\010\241\374\374\233S\314?@\307\010\035\026\372\242?\010\310\031\346\243\274\320\277\250\201\035\343\261\244\325\277\372\275\364W*\375\335\277\231\316\274\032\360;\340\277\244Qt\252!>\342\277\357\200\305v\321\322\342\277\014&\276\334gS\341\277\376($e,\022\327\277\000\372\030\230\242N\242?LP\366\307\311\220\325?lr\203\204 p\325?\240\031\3536\005\333\320?\010\224-\256\014E\300?\000\005\356\321\210W\254?\364\355\210\365Z\326\312\277d\241\005c\360^\335\277.\324v\270:\337\341\277:\002\332r\2562\343\277N\336\006\331J)\343\277(\rM\242e`\342\277x\223eC\240 \335\277xz\220`m\006\302\277x\277\255\275\224\257\317?\220\314\220\216]\006\261?,y\213\316l\271\313\277$\2100\306a~\323\277\372u\345\366q\236\334\277\002\035\235\243\270\206\336\277.\336o\355p\030\341\277\320\3124\325\266\r\340\277\246\322\255\200S\n\336\2776\374I\247s\265\324\277\000\r\312\2232H\231?\270\257S1\277\205\313?\220\244\261wa\332\305?0U\322\245\022T\272?\000x\2016K\036<\277\200\371M\376\321\244\221\277l\021\266&-\354\316\277\222\375\347{\354,\337\277{$\271\260\033p\343\277\"tl\364\312G\345\277\0044\370\0130\357\345\277\300Es%\003\326\345\277\036K\212\314\177V\344\277\222S\317\'\320T\341\277\0024\314\001Tg\323\2770\001\347\002\204N\275\277P\367\r\200N\177\255\277\340\213\214\302_\276\223\277h\277\036\234i\271\263\277\020\357\236Xr4\240\277\000\233Z\261\332\317\266\277\\\306\007\366m\022\306\277\250\005\353\227\\\230\300\277\000*\234r\301:h\277\000%%K\r\255\313?\230Jt\360h\t\320?\240\305Fp%\362\274?\000a\005/\"X\204\277 \324\366\311\243-\272\277\270\315\020$\202w\264\277(\275\315\273\3071\322\277\224\320\315\255\\\332\340\277\236\241\224\276\267\333\344\277Vq\377h\323\307\346\277J\312\247\002(f\347\277\'\026\025\255\366^\347\277f \372\026\215\251\346\277\332\311\357du\204\344\277\314\2409\215)\324\335\277\004\035\323\262\323\370\322\277(\346\037\267\310\014\321\277\360\200M,\326\262\320\277B\034ee\027\371\326\277 b\t\314\217\366\332\277\224J\275\363\235w\340\277\270e.\031Jm\341\277d\024:\222\230\207\340\277\024\247\307\377CD\330\277\200]\232\354DN\251\2770\236\356\223\324\\\275?\340s\377\t\327\252\246?\260\226\313:[\215\241\277\354\024\345\177\352\237\301\277d\361;\327\341\360\304\277\252\274\033\352\022\017\330\277\302\374kk-\370\342\277lP\367u\371\014\346\277\020 h\010!\002\347\277L\324kT\262\366\346\277\221i\260\206\177*\346\277hs\333)\334\316\342\277\"\311\0275S\351\322\277`(O\372\267\254\251?\3203\022\023\205D\276\277\242u\221\230{\016\327\277\310\236\310\367C\365\331\277\316\310\217\027\034\256\340\277\017\374\202\315\346H\341\277Y\374\234Z\3745\343\277\002T\t\001\263\302\343\277\226}4\243+\233\342\277\276\366\201p\272\313\332\277\000\037\263,^\353\244\277\300\340\251eX\367\315?X\364\022S\305\260\312?\360\365\037\324E\'\275?\000\200\322y\221{G?\270\341\301S(\035\261\277\262\223\322\231\312\377\323\277\332\332\2516\0378\341\277U\277\"\362y(\344\277\3321\273NX\031\345\277\376\342\262\005\300\004\345\277p7\302\313\2522\344\277zE\362\221\001n\340\277\210\362/\3515\237\310\277\320\212\020\350<+\305?\360\331n\321\037\362\240\277\306\370\375\301\323\326\323\277\244\007\252\365Wj\330\277-\373\025\347w\023\340\277\233\324$\3343O\341\277\300\311\212\375KO\343\277\342\270\270\370i\263\343\2778\236\344f\201v\342\277\276\rm\260\021\363\331\277 \232[BA\013\231\277\224\311\024\035\271M\320?\340\252\351\353\200\372\315?H\251\016|7K\303?@E\034\361\026\377\240?p\337\013\027\242\030\240\277B\251\207\026\264J\322\277\342\337$Cm\224\340\2772\357:n\237\271\343\2777Q\253\266V\254\344\277\236B\245\347\342\246\344\277\035\'\355\271s\263\343\277Ly \273\324t\337\277\374\241\302\361\030\'\304\277\220\007\033\310&\302\311?\200\341\315W\331\\\201?\014a\r\343\305\201\315\277\232\031@F\357T\323\277\372Ot\301\365,\334\277z-\365x<\205\336\277\246Re\254b\236\341\277\005\213\340Jq\300\343\277*F\332\365\321.\342\277\212\202\010\226\364\031\331\277\000\310\327\004p\305\205\277\014\032\034c.\n\320?\330\277\321\\/\262\315?\240\360\311\030\3101\303?@e[N\330\306\235?\300e@*YE\240\277\320=Q\370\372\320\321\2777\231\344\253\375B\340\277\034\331\326\204\377q\343\277I\357\354O^u\344\277f\033\314\3033:\344\2778\326$\214\003S\343\2772\211\216\nD\300\336\277d\004\022w\2535\303\277\350\222\373\361E\330\313?\000\226|\301U\262f?\252\323\274wDR\325\277H\233>\270YP\332\277t)_\347\374\234\341\277\263/\370?`\250\342\277\270w\300\250[\240\344\277\030#\375\366\372\250\344\277\236\377\0006v\t\342\277\304\260C\313r\242\330\277@\277(RA\245\224\277\270O\257\003\252Y\316?\200T|}\006\227\314?X\216\323[ \010\303?@\223qz+\225\241?@\263\330\216z\342\231\277\200E]\3458\222\321\277d\257\025K0N\340\277h~\251\351\224\234\343\277?\341\326\027_\241\344\277J\343i\236\327\237\344\277\\\004\207\013@\276\343\277\260\006y\213\222\317\337\277\250\323\366\256X\336\307\277\210\225\371\347\200\303\306?\000\370\010\327\177FV?\234\364\022|\230\245\321\277\364W\023\272\267\220\326\277\242\273\335\030\322\320\336\277\354>\203\344\331\005\341\277^d\017\302\226\036\343\277\313T]\236\006\270\343\277}\367\177\026\327\303\342\277\314Z\016Yz\372\332\277 \350\004\273\326\003\272\277\020z\260\017/\205\264?\000\366X-\221\356\252?\000\264\252\253G\222U?`<\"\214i\023\263\277\320\021\345\233\010\362\257\277*w\005\351\214e\321\2775\023k\207n \340\277\0307\227B\252\314\343\277y\"b\034\007\r\345\277\246&\341\033\370]\345\277\372[}/\022\346\344\277e(.\204\373T\343\277\336fg\010\333\342\337\277\346\006\030\373\367A\320\2778\r\n\351\354}\265\277\360,\311\305NI\273\277\3605FC\263\013\303\277\216MT\256\220\277\321\277\016\274\336*2\302\322\277|\233:\260\357\345\331\277V\344\361\367(S\336\277\n\322s\364W\250\335\277\204\352\r\265\352\307\323\277\200b?\367\266\261\242?\270\301\241;\031\235\302?@?U\2521\346\252?`\n\374\312\212\237\246\277\210n\265V\014\333\275\277\320\334\357-\270\270\265\277\004\307\223U\251=\321\277\210\357\222c\006\222\337\277\245\351\317\021@^\343\277\254\273&\312\335\323\344\277\022qX\264AZ\345\2778\036\375\225#,\345\277\253n\224\261w4\344\277\272\002wo\346\300\341\277L\024H\224{\243\327\277\250\233\350\252\025a\302\277\230\236\371U\t\341\270\277\360\213\304\035S\021\277\277\004\t[\214\321\242\313\277\234U\333\2619(\317\277\354V-\230\274r\324\277\364O\254\003\235\242\332\277\250|\266\262\312\307\327\277\244\031|\036F\031\307\277\300\241\346\035\275\226\305?X\356~o\231\261\321?0\277\212g\2679\304?\000\270\t\305\021\305\250?\320[\347\315\326\273\264\277\240^\247\220\231b\277\277\360\016t\317\313z\326\2770\027\246`\230l\342\277\254\267\257\360H\307\345\277Q\322\n\231M\006\347\277>\376@\357\3518\347\277\314\001\351l\350j\346\2778\007I4\350\034\343\277\000\3159T\351S\323\277`\r8\023\213\004\245?\334s/\372\212y\300\277\322S.Q\302/\330\277\260\024\0213\334\335\332\277\314\026&\247]\343\340\277\266\177vU\374\275\341\277U\2373\024\235\375\342\277l\263\375vS\362\343\277|P\350\3341\337\342\277\342\331`\324\377\265\333\277\200\252\216\037c\341\261\277\030\202O\'@\037\305?\340\3548q:\335\277?\000\213\020\023\021\223\224? 0\357P\203\225\265\277\020\177\373\270O\376\300\277\312\016\024\336\033\314\327\277\200\357dn\3022\343\277/7K\240Y1\346\277\n4\323\030\020&\347\277\234\262F\220\227S\347\277\375\275\343~\220\240\346\277r\353,\27163\343\277d\247\030\310\343l\323\277\200\310\351Y\237\342\220?\360\277\021\013V%\265\277:<\371\371U\266\325\277l\257\254\270K\222\327\277\254\215ji\017\276\332\277\300\300\037a\336\234\337\277L\267\271`\377\372\341\277\226\277z\312\222=\342\277\200\001Fk\325\217\341\277\356B\237\315<\342\330\277`\t\256\373\266\\\241\277( \221g\333\252\311?\240\016\350\211\233%\306?@b\214\372Q\276\261?\300\004/:\347\371\251\277\210D\224\267\323z\273\277`\217:\207\331\217\326\277<\334\324\350\356\220\342\277\200X\315\276\217\243\345\277\332\317~\006B\253\346\277\010\351\274q\323\301\346\277n\254u8\356\036\346\277YPu\224\366\267\342\277X\3065\240LY\322\277 \004\231`\362\\\253?\320\367\325>\345\201\243\277(\344BL\021\357\313\277\270\246\036\270v\303\320\277$}O\301&C\335\277\351)z]\237\206\340\277\240\030W\020^\202\342\277\260\"&\350\000\036\343\277\232\325\203\'3\313\341\277>\250{X\253F\331\277P\325\3262\352\020\247\277\260\023\234qv|\310?H\214c\311U}\303?\320\217\370\306t\301\260?\240\036@\325\\\246\253\277\030\3558A\241\224\273\277\304\307\301\212\t\373\325\277\220\363\341\201\0133\342\277\252\237\032\020\342{\345\277/V\201\t\002\212\346\277`#\231R\312f\346\277\261q\275q\023_\345\277X\235\271\022^\271\341\277@\002[\321\326\363\316\277\260\002R\276\347\312\271?p\271 \262\305\010\255\277\006y\230Sx\232\324\2774\254\247\006E\032\331\277k\347\227krx\340\277\223\230\376\203\375\312\341\277\204\266g?\234\256\343\277\356\272\"\240\347H\344\277\342\350\3109\347\007\343\277,3(~)\363\332\277H\271\225\247K\033\264\277\200]I[\177?\300?\340J\035\252o%\271?\200\255\363b\355y\217?x`\3132\356\315\272\277\344\007\260\260\013\027\303\277\326\032\t\014\237\217\330\277\216\r\303\313\333\206\343\277V\314\005\242\362\325\346\277\233\242\371\227\225)\350\277!\267\326\r\263O\350\277\0165\270\213\032\316\347\277\360\342\353\253\362\327\344\277\316\005;\201t\003\331\277hT\312&\315S\272\277\330:\033\236\t\316\313\277V\264zCI\310\333\277Tp\244\264D\224\334\277\006\201\032\342hv\340\277O\242\276\302\3329\342\277\222\330\306>\313\302\343\277\245\313\275\216\022\271\343\277\350II\262\317\274\342\277FU\r\374\316\375\335\277$@\237\220\354\365\310\277p\374\377\004\325\350\254\277\250\260\310LR\036\272\277\264\213\275{\222Z\306\277rr\266LLy\320\2774\224#d\352\032\316\2776p\006~\224\026\333\277L\237\227\363\251?\344\2778\031\242i\355\216\347\277OG\003hP\331\350\277pAn\236WI\351\277\014\251\233\271?=\351\277\350%\344*\3174\350\277n\377\270\t\307\215\345\277\374n\272&0\027\340\277\200\344\333\034\317\375\324\277\256\371\353\006k\315\320\277X\323\221\306/\360\313\277\356J*\220j\217\325\277\300f\326![\236\332\277v\010\313\025\345n\335\277\006^fb\\\311\334\277\246\034y\344\rT\331\277H\354\215b\230\033\320\277\200%\223\272\334P\212? 4\372\331\310\202\250?H\'\027\363s\272\260\277d\0369a\263D\305\277\254*\r\371\350\377\316\277\304\\_\225\313\254\312\277\224~\t>\266\307\327\277\"\314}\354nv\342\277I\311\025fx\333\345\277\314\004\312\253\351A\347\277 \262\207h\257\236\347\277\362\037d\035\007\\\347\277\342\\\003\305\317D\346\277MH\304o\330+\344\277\344\322\257\266\237y\336\277\216\321\336zk\002\326\277\030\250\266\362\n\267\325\277\316\262G\310\213N\325\277Z\027`\356\366\205\332\277\010t#$p\016\331\2774\224\214\316\272\332\335\277\224\320\201\207J\031\337\277x\224\036\264\322\014\335\277\360\331\3126%\221\324\277\000\270\315\260\234\206\207?\320.m@/u\301?\000y\362\027\272\200\235?\240~\002@F\346\260\277\220\014\226\030\227d\310\277\340jj\241^,\314\277F\202\326_\354C\333\277~^\240\013\'o\344\277\266\222\344/\341y\347\277\322c [\223\234\350\277\307\326\210\334\005\265\350\277\204O\ng\326\036\350\277\210~w,\0073\345\277\322n\325I\354\235\331\277\270\356\204\200\367.\276\277\374%{\333K\305\315\277\320\357\0164(\350\331\277\030\324)Ag\305\333\2774\205\360\311\242\r\341\277\334\264G\267\270\267\341\277\262\271\0374\254S\344\277\364\000{\223fy\344\277\222%c\343\363\336\343\277\236o\204\313k\021\336\277\254R\377Xi\177\300\277 $\352\246-\200\244?@*\333\004\203}\221\277\220~f\246\326\272\277\277\334\251q\200\272\263\314\277\200X\345_~\300\317\277`I\241\027s\277\335\277Yb\216\247\232\250\345\277\336\362]\3253\270\350\277\274\2069NP\261\351\277\356\263\014\237\037\375\351\277\272\tj\226\rp\351\277;\360\366v)\200\346\277\\\225\242\357\260e\334\277\240.\010WE\215\304\277\306\035\302z\306\003\321\277\034\362\027\232r\356\333\277\360\277\026I\263\027\333\277\3542\212\363\317\027\340\277&b\'\2617F\337\277\317an]\320\233\340\277\322\2063\\?i\340\277\022\220\301~\242Y\332\277\360\332\3524\307\212\305\277pA\211\315\230\001\274?\244\227\033\033\2520\321?\270u\017`\214n\307?\340;,\276\201\332\262?P\334\177\315\376d\255\277\000\377S\375\014\n\273\277\244*R{\270\026\326\277\260\361\320bX\"\342\277\030\332\332tWu\345\277:r\356\206p\243\346\277\216\3619\004\005\375\346\277\230$\326\351\0236\346\277\364aX\224\177Q\343\277\240\027\252\253\340\241\324\277@=[\206AB\226\277\2607&\270|\037\306\277\030j\023B\236\355\327\277\006\004\014L@\341\330\277\260\272\226 \232\354\336\277t({\023\333\322\336\277\240T\357\321Gp\337\277D\277\360(g\215\334\277\316\321u\264\353\027\330\277\274\365\031\371\201J\313\277\020\261q\333\202\321\300?<\343\267\013\200\342\324?\030M\323\002\004t\320?\340\267\342+md\300?\000\316\002!\342cr?\240?^+\323A\241\277\212\332F\330\355\027\322\277\210\366tH\037\017\341\277\2161\254\217\177c\344\277\246\t\016S\031t\345\277\250\020v\352\302\225\345\277Tv<\017\321\253\344\277X\367P\201j\r\341\277x\324\233\240\023\357\313\277xX\266\267G\005\301?\200\177\r\3775|\226?\254\214;\305_k\314\277Nh\006\263\227\322\323\277\372\352&\237\224p\335\277\253\303\327\271\2418\340\277\327\254\364\237\246U\342\2772\2234W\026\321\342\277\342\341\030\367\215#\341\277\330\312\377T|\341\325\277`\274\356\224\371\007\244?\314C\023\224\014<\322?\320\222K\r\370\376\320?\240O\330\273Q\300\305?@\321\251e\'\237\234?\320\237\314\326\322f\247\277\320\233\201\340\306\337\322\277Z.m-\350\361\340\277\364\355C\231\236H\344\277\344HU\350\036\272\345\277\3465(\353\221\247\345\277\034\211\227\300\302\304\344\277\321\215\320\332\226\031\341\277\314\237\322Ke[\315\277\020\017\0223\322S\271?@\317\327\236\030\312\240\277t\3056t\024\341\322\277D\000\n\"\014-\326\277f\257#JQ\375\335\277\357\200{S3M\340\277\304r\271\351d2\342\277X0inY\250\342\277FL\322\370\251O\341\277\030O\303-\273\337\325\277\240{\030\232\256\211\224\277\310\231\262\220>\273\301?\020o&\214\311-\270?@\274\221\344\264\350\233?\020\366\306\273\261\311\262\277(\014\243\363N\027\266\277\000\004\317\017^\277\323\277^q\305%\271\211\341\277\270OV\177`:\345\277\324_\210\033J\320\346\277\326\365\345\321\014C\347\277\240ff\n\004\357\346\277\030\337\344\263\231Y\345\277&\361\203?\261\347\341\277\"|V\255\022\234\327\277\004\242\225o\247\303\313\277\020\242\342\215\016\240\306\2774\326%]\005l\304\277\014\363\267\221q\322\317\27705D 3\242\322\277\324\342Yy\363\231\323\277xA\244\014\342Q\322\277\210\230\266\243\363\340\314\277\300\222h\333\373\374\265\277\000\347\003\300\305~\300?\300\224;\373Pw\301?\000\354S\300}\276D\2770\364\267\036\362\272\275\277\260\306\264a2\307\312\277hj(wI\021\306\2770g\330\334\250\254\326\277\362\225jD\022\231\342\277\345\262n\253UN\346\277\302\276\210\031\340\346\347\277\204E(\374\211\220\350\277`\356x\305\254\225\350\277\371H9t\241\332\347\2770\000\266\344\344\305\345\277\206\251H]\237\005\341\277\244e\021\2547\371\322\277\330\230c\242A\332\301\277\000rbZ\013\253i?\200~|\344 \014\205?\340(H\353|8\253?`E\370\325;!\244?\000$\377\0060\215~\277\220\216\305Drt\266\277\360\033\253\3175\224\246\277\204\346\023V\247\250\321?h\264@W\232T\331?\020<\273=[m\322?X\377\351n\317K\305?\000\304Q4e\356o?\200\027\333\022\352\322\254\277\362\n\221\243\346\333\322\277:\377O\247{\032\341\277\3205?\2568\200\344\277\227\r.\224\2152\346\277\240\217\277\305U\276\346\277~\304}\313\305`\346\277P\313{\250\236c\343\277\346e\271-\311\231\324\277\000N\037\304 \304\207?\340Ga\000_\372\251\277\\\337{r\234\216\314\277\014\314\360\321\271\241\306\277p\273\362\357\320X\314\277\2348\276\321\302j\317\277f\022\0023\255S\323\277\224\373\345\272\243\311\325\277\004\203e\007WQ\327\277\304\\\025\001\265\205\307\277@\245\252\035@\315\315?\\\223\235\367\2001\335?\024\213\335\263Y_\330?h\310\333G5\257\317?pw\033\204\304Y\271?\000\314\177\361d\245\203?n\r\241\335\n\324\320\277g\236I\347\366\210\340\277-\227hp\357(\344\277\\L\323Ik\250\345\277\247\331i\275X\357\345\277\252\346\353{G\206\345\2778L\367\031\341m\342\277\322\221F\357/\277\321\277`\245\010\r=:\256?\000\256F\322Q\263{\277\230\352\345*\263\235\311\277\364yU\255D:\305\277(yP\370oO\313\277 \215\220H\001r\314\277XE\277k\'\310\321\277\222x\367\032=t\323\277^\230\225\2422\221\321\277\220\024\300\034\224\257\254\277l#\260_\025^\324?r\342B&\207\352\340?\000\263\300\265\360\261\334?l\023\301\2260\001\324?\260\024`\'a\232\303?\240vY\320\214}\254?d\304\324\304\3278\313\277\274\017j\244u\005\336\277a\004 ~\320\260\342\277\016S\0342\2604\344\277\214\303\244}\274\241\344\277\t#*\231|<\344\277\024\367\302\022\263\363\340\277\230\310\212j\310\r\314\277\3008\244\205\013V\300?\000\221\305\005\206\207\255?\360\021\233\234\373\001\274\277\300\340\022)\225\364\270\277\020\035\252.F@\307\277\370>\340 \344\026\317\2774\017+\007s\014\331\277$\307\230\375\272~\335\277\210\270\234\262\005*\333\2778_\234K^\257\307\277\250\361\264x B\313?(\325\213\020\264\235\332?lw\217ad\240\326?\000\270\323$n\201\314?@\266\342\032-W\261?\200v\270\223Mpw\277R\010\327\333\367A\321\277\312x\276#!\257\340\277\360\201z\341\033H\344\277B\032N\337Y\231\345\277\256=Q+\325\005\346\277\3506\333\331\353s\345\277O\362>\343\356V\342\277\306\241\272|U\344\321\277@\225I\016\371\"\247?\200\'\027^h\202\236\277\010\267TD\274^\312\277\340\300\340]%9\317\277&Q\177\366\237\303\332\277\272\030\214\336>\263\334\277\344\014\256j\034\202\336\277\302\201^D\313s\337\277L\262L\260@q\334\277\236\344\343\001\313h\320\277P\303y\341\3616\267?\270\372\263\017\244\355\322?\200J\210z\'\236\320?\310|\270\216j\200\305?\340\215\244~\221&\244?\340\025\251\335)z\222\277r\002\353\232.\r\322\277|\203\244\000\210\364\340\277t\253\220\014G\251\344\277\204\336\313c=H\346\277.\266\211\213\236\177\346\277\310\262\"\031\216\313\345\277(\024\210n9y\342\277\350O7\271-\271\322\277\240\0107T\252\002\244?p\352\266,\322\021\251\277\370\323\231\236b\256\320\277\306\0138\361\201e\321\277\224\"Q\301+}\330\277\366]\203\362@\332\333\277\240\363\325-2\373\337\277\302\336\242L\245\312\340\277\032\322\037vO\347\335\277\000B\337$}\r\315\277\240vCqq\002\277?\234\215\246N-.\322?<\"\241\271\r\010\320?\350\341<D\001\274\307?\340\314\316\ry\333\265?\020\010V\231^K\265?\310\200\350\024\325u\301\277\202*\224\307aV\330\277\344\347&\207\230\024\340\277\212x\217\227y\276\341\277d{\013(\356-\342\277\024\346$\332\330\256\341\277;\237\206\001\304\005\340\277p\353u\037\335\035\331\277\014\271\366\254`0\305\277\300\207\334R!\367\241?\000`-\205C\326\210?\300\360F\321\267\213\254\277\350B\304\266Wl\315\277\226\371Z\374\330r\323\277\312\223\377\360e\372\331\277\n\234N[{\242\334\277*~\2713\3173\332\277\240Jt\314V\363\307\277\010\252\024\255\243\367\303?\204\246\324\226Z1\320?\2103l\300}\301\305?\000W\2539\272I\264?\000\334Y\242\354\241s?\000\rrcl\356\235? \342u\234\213\211\304\277\014\253\214(r\326\330\277tV\336\025sR\340\2779\234\036K6#\342\277\310\273\263\312\205\321\342\277\356\022or\212\307\342\277\n#\001=\003\200\341\277>\032\364J\257\372\335\277\240w\032Z\325\202\323\277\220i\275\266\2373\273\277@j#\200\320\321\270\277\260pj\2218\205\273\277\000\366\266\226\313\302\316\277\226\234\257\375\0329\322\277p\337\3515\027\221\327\277\212\332\030>\027i\331\277\376^\332\230\343\312\325\277(\234\023f\256\201\274\277\220\262N1\362\370\314?\200:/lk)\325?\330\024\034\027\243\205\317?8\343\032\251\022j\304? }-\256\202\200\261?\200y\304SM\342\251?\354\305AU\230\233\304\277\366\247e\277t\305\331\277\356\257Q&\306\375\340\277:\225\271e\361\262\342\277p62\247\351j\343\277\343\346\217\'\tx\343\277F\232_6\237\366\341\277\264\007\014V\262\226\336\277\216y\206\234\023x\325\277X\0021\327\264\322\305\277D,\261\013\227\320\300\277\320XB\034\307\220\247\277TI\024\323\250{\300\277\220\206^\206S\272\270\277p\310$\214\312\366\305\277\364\250\267\270B\225\305\277@\021>\300\244\002\300\277\340\343\347\215yz\241?\220\356B=\2245\330?dL\277\240]\335\336?@KoVZ\353\330?|\316\235W\000\250\320?\200\037\363&\251o\272?@\353\320\365\202\367\233?`.p<\273\306\315\277t$\274\222\230\351\336\277k\262\210*h\030\343\277H\236#x\300~\344\277\310\360\031uY\261\344\277l\276\205\226\324\004\344\277\020B\022:\017\242\340\277\240#\20245]\312\277\330\226\370\200-\366\302?\300\300\200:\333\316\223?x#_J\r\251\315\277<M\214\355w\311\311\277\214|\326\325\304S\321\277\314f\352\353\270\022\320\277\024\203\355\003\277c\324\277\352p\342\305\2473\327\277\322\305*\214o\352\325\277\304]\007\304\357f\304\277\010\005XB\265W\320?\3100\334 \310\235\337?$*\007\250\353\242\335?\270k\270\3572\266\326?\240l\273\023L\200\311?\340)\220\031)%\272? q7\245\370d\305\277\320B\t\235Y\371\332\277\023\307 \023\360\356\340\277\202\306\253\003a\007\342\277vEXVs.\342\277\000\330\335}\262v\341\277X\030\023\345T\036\334\277X\231\341\244\255\271\273\277\224\026\367\360\240\203\320?\340,+\025ad\306?\020\306T6\350\222\243\277\010Q\352\220\273\232\264\277L\354\227\336R\000\314\277Td%\375\237\203\310\277\204\306\265q\024\307\322\277\002\2041Z\232.\327\277Hp\003R\362\375\326\277\240\306\266\256\313\241\302\277\224~a\337\364\302\323?\272\270O\313xg\342?\354!\3328nY\341?d\267\306:\364\262\333?\304\204t\333\362z\321?\210j\254\222\033<\304?\244\371\3459-\225\300\277\222\327\344s \215\331\277\240\201\223NK\237\340\277\320GR\272\2011\342\277<k\354\010\243\231\342\2779Ny\t\341\342\341\277\n\023e\\\202K\334\277\250\tL`\375\256\273\277Hk|\003\324t\321?x\203G\246n&\304?\350\003\1779\217\330\276\2778\327\321\356\177\300\310\277:\376\311\000v\252\324\277:U\376\370R\201\324\277\030\323\016$\264\232\324\277h\232\374\221H\034\330\277:\246\1779K3\327\277\034\243;!\032\333\302\277@\231\261\032-\324\320?\204\021\306\035\374\235\340?\350Q\301\264\375\033\337? 